{
  "version": "1.0",
  "truncation": null,
  "padding": null,
  "added_tokens": [
    {"id":256,"content":"<unk>","single_word":false,"lstrip":false,"rstrip":false,"normalized":false,"special":true},
    {"id":257,"content":"<bos>","single_word":false,"lstrip":false,"rstrip":false,"normalized":false,"special":true},
    {"id":258,"content":"<eos>","single_word":false,"lstrip":false,"rstrip":false,"normalized":false,"special":true},
    {"id":259,"content":"<pad>","single_word":false,"lstrip":false,"rstrip":false,"normalized":false,"special":true}
  ],
  "normalizer": null,
  "pre_tokenizer": {
    "type":"Sequence",
    "pretokenizers":[
      {"type":"Split","pattern":{"Regex":"(?i:'s|'t|'re|'ve|'m|'ll|'d)|[^\\r\\n\\p{L}\\p{N}]?\\p{L}+|\\p{N}{1,3}| ?[^\\s\\p{L}\\p{N}]+[\\r\\n]*|\\s*[\\r\\n]|\\s+(?!\\S)|\\s+"},"behavior":"Isolated","invert":false},
      {"type":"ByteLevel","add_prefix_space":false,"trim_offsets":true,"use_regex":false}
    ]
  },
  "post_processor": null,
  "decoder": {"type":"ByteLevel","add_prefix_space":false,"trim_offsets":true,"use_regex":true},
  "model": {
    "type":"BPE","dropout":null,"unk_token":null,"continuing_subword_prefix":"","end_of_word_suffix":"","fuse_unk":false,"byte_fallback":false,"ignore_merges":false,
    "vocab": {
      "Ā":0,
      "ā":1,
      "Ă":2,
      "ă":3,
      "Ą":4,
      "ą":5,
      "Ć":6,
      "ć":7,
      "Ĉ":8,
      "ĉ":9,
      "Ċ":10,
      "ċ":11,
      "Č":12,
      "č":13,
      "Ď":14,
      "ď":15,
      "Đ":16,
      "đ":17,
      "Ē":18,
      "ē":19,
      "Ĕ":20,
      "ĕ":21,
      "Ė":22,
      "ė":23,
      "Ę":24,
      "ę":25,
      "Ě":26,
      "ě":27,
      "Ĝ":28,
      "ĝ":29,
      "Ğ":30,
      "ğ":31,
      "Ġ":32,
      "!":33,
      "\"":34,
      "#":35,
      "$":36,
      "%":37,
      "&":38,
      "'":39,
      "(":40,
      ")":41,
      "*":42,
      "+":43,
      ",":44,
      "-":45,
      ".":46,
      "/":47,
      "0":48,
      "1":49,
      "2":50,
      "3":51,
      "4":52,
      "5":53,
      "6":54,
      "7":55,
      "8":56,
      "9":57,
      ":":58,
      ";":59,
      "<":60,
      "=":61,
      ">":62,
      "?":63,
      "@":64,
      "A":65,
      "B":66,
      "C":67,
      "D":68,
      "E":69,
      "F":70,
      "G":71,
      "H":72,
      "I":73,
      "J":74,
      "K":75,
      "L":76,
      "M":77,
      "N":78,
      "O":79,
      "P":80,
      "Q":81,
      "R":82,
      "S":83,
      "T":84,
      "U":85,
      "V":86,
      "W":87,
      "X":88,
      "Y":89,
      "Z":90,
      "[":91,
      "\\":92,
      "]":93,
      "^":94,
      "_":95,
      "`":96,
      "a":97,
      "b":98,
      "c":99,
      "d":100,
      "e":101,
      "f":102,
      "g":103,
      "h":104,
      "i":105,
      "j":106,
      "k":107,
      "l":108,
      "m":109,
      "n":110,
      "o":111,
      "p":112,
      "q":113,
      "r":114,
      "s":115,
      "t":116,
      "u":117,
      "v":118,
      "w":119,
      "x":120,
      "y":121,
      "z":122,
      "{":123,
      "|":124,
      "}":125,
      "~":126,
      "ġ":127,
      "Ģ":128,
      "ģ":129,
      "Ĥ":130,
      "ĥ":131,
      "Ħ":132,
      "ħ":133,
      "Ĩ":134,
      "ĩ":135,
      "Ī":136,
      "ī":137,
      "Ĭ":138,
      "ĭ":139,
      "Į":140,
      "į":141,
      "İ":142,
      "ı":143,
      "Ĳ":144,
      "ĳ":145,
      "Ĵ":146,
      "ĵ":147,
      "Ķ":148,
      "ķ":149,
      "ĸ":150,
      "Ĺ":151,
      "ĺ":152,
      "Ļ":153,
      "ļ":154,
      "Ľ":155,
      "ľ":156,
      "Ŀ":157,
      "ŀ":158,
      "Ł":159,
      "ł":160,
      "¡":161,
      "¢":162,
      "£":163,
      "¤":164,
      "¥":165,
      "¦":166,
      "§":167,
      "¨":168,
      "©":169,
      "ª":170,
      "«":171,
      "¬":172,
      "Ń":173,
      "®":174,
      "¯":175,
      "°":176,
      "±":177,
      "²":178,
      "³":179,
      "´":180,
      "µ":181,
      "¶":182,
      "·":183,
      "¸":184,
      "¹":185,
      "º":186,
      "»":187,
      "¼":188,
      "½":189,
      "¾":190,
      "¿":191,
      "À":192,
      "Á":193,
      "Â":194,
      "Ã":195,
      "Ä":196,
      "Å":197,
      "Æ":198,
      "Ç":199,
      "È":200,
      "É":201,
      "Ê":202,
      "Ë":203,
      "Ì":204,
      "Í":205,
      "Î":206,
      "Ï":207,
      "Ð":208,
      "Ñ":209,
      "Ò":210,
      "Ó":211,
      "Ô":212,
      "Õ":213,
      "Ö":214,
      "×":215,
      "Ø":216,
      "Ù":217,
      "Ú":218,
      "Û":219,
      "Ü":220,
      "Ý":221,
      "Þ":222,
      "ß":223,
      "à":224,
      "á":225,
      "â":226,
      "ã":227,
      "ä":228,
      "å":229,
      "æ":230,
      "ç":231,
      "è":232,
      "é":233,
      "ê":234,
      "ë":235,
      "ì":236,
      "í":237,
      "î":238,
      "ï":239,
      "ð":240,
      "ñ":241,
      "ò":242,
      "ó":243,
      "ô":244,
      "õ":245,
      "ö":246,
      "÷":247,
      "ø":248,
      "ù":249,
      "ú":250,
      "û":251,
      "ü":252,
      "ý":253,
      "þ":254,
      "ÿ":255,
      "er":260,
      "an":261,
      "th":262,
      "in":263,
      "re":264,
      "on":265,
      "at":266,
      "st":267,
      "ar":268,
      "or":269,
      "Ġ|":270,
      "Ġth":271,
      "it":272,
      "al":273,
      "en":274,
      "Ġthe":275,
      "es":276,
      "ĠĠ":277,
      "]]":278,
      "[[":279,
      "le":280,
      "Ġo":281,
      "is":282,
      "ed":283,
      "ic":284,
      "Ġa":285,
      "Ġof":286,
      "20":287,
      "ot":288,
      "ur":289,
      "Ġ[[":290,
      "and":291,
      "ch":292,
      "lt":293,
      "ion":294,
      "Ġw":295,
      "am":296,
      "gt":297,
      "om":298,
      "Ġt":299,
      "qu":300,
      "Ġs":301,
      "Ġb":302,
      "Ġc":303,
      "Ġin":304,
      "Ġp":305,
      "ĠA":306,
      "ve":307,
      "ref":308,
      "as":309,
      "Ġf":310,
      "ing":311,
      "Ġand":312,
      "quot":313,
      "}}":314,
      "{{":315,
      "ht":316,
      "ate":317,
      "us":318,
      "ol":319,
      "''":320,
      "Ġd":321,
      "ent":322,
      "ac":323,
      "il":324,
      "Ġm":325,
      "Ġh":326,
      "ro":327,
      "ive":328,
      "ir":329,
      "eb":330,
      "Ġn":331,
      "un":332,
      "ĠĠĠĠ":333,
      "la":334,
      "ĠS":335,
      "id":336,
      "Ġto":337,
      "tp":338,
      "Ġ1":339,
      "//":340,
      "http":341,
      "://":342,
      "Ġ20":343,
      "el":344,
      "ww":345,
      "ation":346,
      "ĠC":347,
      "arch":348,
      "ig":349,
      "url":350,
      "date":351,
      "ag":352,
      "Ġ(":353,
      "ite":354,
      "et":355,
      "Th":356,
      "ĠB":357,
      "ct":358,
      ";/":359,
      "ad":360,
      "em":361,
      "im":362,
      "ĠM":363,
      "ist":364,
      "archive":365,
      "ut":366,
      "https":367,
      "lo":368,
      "Ġre":369,
      "==":370,
      "itle":371,
      "um":372,
      "ĠP":373,
      "ly":374,
      "The":375,
      "ers":376,
      "ess":377,
      "Ġe":378,
      "ub":379,
      "]],":380,
      ".&":381,
      "title":382,
      "web":383,
      "ĊĊ":384,
      "ame":385,
      "ĠI":386,
      "irst":387,
      "oo":388,
      "19":389,
      "ish":390,
      ";{{":391,
      "}}&":392,
      "ce":393,
      "Ġ=":394,
      "ra":395,
      "com":396,
      "ew":397,
      "ri":398,
      "amp":399,
      "ber":400,
      "last":401,
      "ul":402,
      "ĠR":403,
      "Ġl":404,
      "op":405,
      "=&":406,
      "ĠD":407,
      "Ġis":408,
      "org":409,
      "ĠH":410,
      "âĢ":411,
      "Ġ&":412,
      "ia":413,
      "www":414,
      "ter":415,
      "ec":416,
      "Ġfor":417,
      "os":418,
      "ĠF":419,
      "ĠE":420,
      "ver":421,
      "ith":422,
      "first":423,
      "cess":424,
      "ay":425,
      "ian":426,
      "Ġg":427,
      "Ġ201":428,
      "Ġ''":429,
      "our":430,
      "10":431,
      "Ġas":432,
      "Ġst":433,
      "res":434,
      "Ġon":435,
      "201":436,
      "od":437,
      "ĠG":438,
      "âĢĵ":439,
      "age":440,
      "art":441,
      "Ġname":442,
      "iv":443,
      "Ġ19":444,
      "ĠN":445,
      "cite":446,
      "ĠL":447,
      ";&":448,
      "ap":449,
      "ĠJ":450,
      "lish":451,
      "ang":452,
      "ab":453,
      "Ġal":454,
      "ary":455,
      "ook":456,
      "Ġwh":457,
      "ĠW":458,
      "ow":459,
      "Ġ{{":460,
      "ity":461,
      "Ġbe":462,
      "ug":463,
      "00":464,
      "Ġwas":465,
      "Ġby":466,
      "Ġwith":467,
      "access":468,
      "Ġan":469,
      "ĠT":470,
      "est":471,
      "ear":472,
      "Ġcon":473,
      "up":474,
      "ĠThe":475,
      "nd":476,
      "ory":477,
      "Ġ202":478,
      "ep":479,
      "if":480,
      "ies":481,
      "og":482,
      "rom":483,
      "ort":484,
      "sp":485,
      "ud":486,
      "200":487,
      "ine":488,
      "und":489,
      "ublish":490,
      "ard":491,
      "ain":492,
      "ĠO":493,
      "Ġthat":494,
      "ment":495,
      "Ġv":496,
      "ust":497,
      "ant":498,
      "oc":499,
      "ĊĠĠĠĠ":500,
      "all":501,
      "202":502,
      "uth":503,
      "Ġ2":504,
      "ex":505,
      "nal":506,
      "ere":507,
      "Ġweb":508,
      "ical":509,
      "ath":510,
      "ill":511,
      "ublisher":512,
      "ph":513,
      "ight":514,
      "ich":515,
      "ip":516,
      "ord":517,
      "</":518,
      "Ġat":519,
      "Ġcom":520,
      "ĠU":521,
      "ial":522,
      "publisher":523,
      "Ġfrom":524,
      "ore":525,
      "ect":526,
      "ure":527,
      "ign":528,
      "Ġpro":529,
      "Ġit":530,
      "ournal":531,
      "ran":532,
      "year":533,
      "11":534,
      "ak":535,
      "ue":536,
      "ews":537,
      "se":538,
      "ib":539,
      "Ġare":540,
      "ile":541,
      "ork":542,
      "Ġ200":543,
      "mer":544,
      "pp":545,
      "Ġde":546,
      "ff":547,
      "ther":548,
      "Ġor":549,
      "Ġex":550,
      "ĠSt":551,
      "ĠIn":552,
      "ast":553,
      ")|":554,
      "end":555,
      "ov":556,
      "stat":557,
      "ell":558,
      "ack":559,
      "rit":560,
      "ash":561,
      "journal":562,
      "12":563,
      "ost":564,
      "ated":565,
      "Cite":566,
      "av":567,
      "ry":568,
      "ass":569,
      "ĠK":570,
      "pt":571,
      "ge":572,
      "===":573,
      "oun":574,
      "ous":575,
      "18":576,
      "13":577,
      "status":578,
      "ence":579,
      "78":580,
      "ru":581,
      "ie":582,
      "ik":583,
      "ican":584,
      "ions":585,
      "iss":586,
      "uthor":587,
      "htm":588,
      "con":589,
      "ult":590,
      "Ġch":591,
      "fn":592,
      "Ġbook":593,
      "ire":594,
      "ages":595,
      "uc":596,
      "ĠCh":597,
      "act":598,
      "de":599,
      "ern":600,
      "ress":601,
      "iz":602,
      "ĊĠĠĠĠĠĠ":603,
      "Ġhis":604,
      "man":605,
      "30":606,
      "per":607,
      "angu":608,
      "Ġr":609,
      "ember":610,
      "/&":611,
      "ations":612,
      "]].":613,
      "ĠĠĠĠĠĠĠĠ":614,
      "ext":615,
      "ong":616,
      "ld":617,
      "so":618,
      "Ġus":619,
      "Ġsh":620,
      "15":621,
      "book":622,
      "ace":623,
      "are":624,
      "olog":625,
      "loc":626,
      "Ġle":627,
      "pr":628,
      "Ġhe":629,
      "|-":630,
      "sh":631,
      "ng":632,
      "ĠV":633,
      "lin":634,
      "site":635,
      "14":636,
      "ide":637,
      "Ġwhich":638,
      "ens":639,
      "nt":640,
      "br":641,
      "anguage":642,
      "Ġsp":643,
      "ach":644,
      "ave":645,
      "cl":646,
      "16":647,
      "]]''":648,
      "ree":649,
      "for":650,
      "bn":651,
      "ition":652,
      "ics":653,
      "ates":654,
      "eg":655,
      "ĠUn":656,
      "to":657,
      "ndash":658,
      "),":659,
      "Ġac":660,
      "17":661,
      "In":662,
      "website":663,
      "ĠAr":664,
      "books":665,
      "ft":666,
      "html":667,
      "ational":668,
      "Ġ3":669,
      "sfn":670,
      "olum":671,
      "Ġnot":672,
      "199":673,
      "ĠTh":674,
      "land":675,
      "low":676,
      "Ġwere":677,
      "ateg":678,
      "ism":679,
      "ci":680,
      "author":681,
      "live":682,
      "ron":683,
      "Ġ}}&":684,
      "lect":685,
      "nb":686,
      "ove":687,
      "lay":688,
      "les":689,
      "978":690,
      "ĠAl":691,
      "enc":692,
      "ind":693,
      "Ġcomp":694,
      "merican":695,
      "ond":696,
      "the":697,
      "port":698,
      "25":699,
      "Ġse":700,
      "Ġk":701,
      "ount":702,
      "pg":703,
      "co":704,
      "Ġfirst":705,
      "ric":706,
      "Ġ/&":707,
      "Ġun":708,
      "orld":709,
      "Ġ''[[":710,
      "out":711,
      "page":712,
      "yle":713,
      "Ġjournal":714,
      "ound":715,
      "ob":716,
      "text":717,
      "Ġ||":718,
      "ategory":719,
      "az":720,
      "ah":721,
      "ome":722,
      "ivers":723,
      "Ġ18":724,
      "oi":725,
      "led":726,
      "*[[":727,
      "=[[":728,
      "olume":729,
      "lic":730,
      "ugh":731,
      "orn":732,
      "24":733,
      "isbn":734,
      "Ġcont":735,
      "Ġalso":736,
      "ase":737,
      "Ch":738,
      "ime":739,
      "ual":740,
      "ark":741,
      "uch":742,
      "ater":743,
      "ied":744,
      ".{{":745,
      "ited":746,
      "Ġim":747,
      "22":748,
      "ey":749,
      "ice":750,
      "ev":751,
      "ober":752,
      "Ġad":753,
      "rib":754,
      "Ġ4":755,
      "ail":756,
      "istory":757,
      "Ġhave":758,
      "04":759,
      "able":760,
      "oh":761,
      "artic":762,
      "ss":763,
      "math":764,
      "Category":765,
      "row":766,
      "te":767,
      "pages":768,
      "ĠY":769,
      "09":770,
      "23":771,
      "05":772,
      "26":773,
      "Ġar":774,
      "03":775,
      "'''":776,
      "Ġab":777,
      "ts":778,
      "Al":779,
      "right":780,
      "..":781,
      "oul":782,
      "red":783,
      "Ġhas":784,
      "anu":785,
      "itor":786,
      "ugust":787,
      "Ġits":788,
      "une":789,
      "news":790,
      "ĊĠ":791,
      "File":792,
      "lop":793,
      "cent":794,
      "06":795,
      "28":796,
      "own":797,
      "Ġhad":798,
      "ology":799,
      "ĠAmerican":800,
      "language":801,
      "ans":802,
      "old":803,
      "08":804,
      "io":805,
      "ef":806,
      "27":807,
      "work":808,
      "Ġ5":809,
      "erv":810,
      "igh":811,
      "29":812,
      "umb":813,
      "ction":814,
      "we":815,
      "ould":816,
      "ral":817,
      "form":818,
      "Ġ199":819,
      "ys":820,
      "df":821,
      "over":822,
      "Ġtheir":823,
      "ann":824,
      "uk":825,
      "07":826,
      "St":827,
      "son":828,
      "Ġbut":829,
      "ept":830,
      "Ġstyle":831,
      "one":832,
      "Ġyear":833,
      "pril":834,
      "Ġdes":835,
      "iversity":836,
      "rad":837,
      "ents":838,
      "01":839,
      "fter":840,
      "ood":841,
      "of":842,
      "du":843,
      "anuary":844,
      "Ġper":845,
      "Ġdis":846,
      "Ġpr":847,
      "eral":848,
      "ee":849,
      "int":850,
      "AA":851,
      "ict":852,
      "editor":853,
      "raph":854,
      "ope":855,
      "nbsp":856,
      "Ġthis":857,
      "ĠĠĠ":858,
      "ance":859,
      "rans":860,
      "clud":861,
      "pl":862,
      "mon":863,
      "yst":864,
      "doi":865,
      "aw":866,
      "att":867,
      "ative":868,
      "any":869,
      "198":870,
      "ctober":871,
      ").":872,
      "--":873,
      "Ġtitle":874,
      "Ġpl":875,
      "Ar":876,
      "ĠCom":877,
      "volume":878,
      "02":879,
      "imes":880,
      "use":881,
      "vi":882,
      "uly":883,
      "ĠâĢĵ":884,
      "Ġme":885,
      "jpg":886,
      "Ġcol":887,
      "ren":888,
      "Ġapp":889,
      "ode":890,
      "Ġ6":891,
      "|{{":892,
      "pdf":893,
      "outh":894,
      "ms":895,
      "ĠAn":896,
      "ings":897,
      "ury":898,
      "ese":899,
      "gle":900,
      "]].&":901,
      "ecember":902,
      "000":903,
      "ox":904,
      "eptember":905,
      "ok":906,
      "Ġone":907,
      "iet":908,
      "tern":909,
      "ram":910,
      "mber":911,
      "location":912,
      "Ġag":913,
      "Ġother":914,
      "igin":915,
      "yp":916,
      "uring":917,
      "ors":918,
      "oogle":919,
      "Ġen":920,
      "|[[":921,
      "Ġbeen":922,
      "ision":923,
      "reat":924,
      "wo":925,
      "Ġinclud":926,
      "An":927,
      "fer":928,
      "Ġwho":929,
      "ohn":930,
      "ebru":931,
      "Ġnews":932,
      "ublic":933,
      "ebruary":934,
      "ons":935,
      "ular":936,
      "cord":937,
      "align":938,
      "thumb":939,
      "au":940,
      "Ã©":941,
      "ium":942,
      "ne":943,
      "gov":944,
      "ovember":945,
      "ific":946,
      "Ġcent":947,
      "Ġrel":948,
      "round":949,
      "'',":950,
      "ks":951,
      "Ġla":952,
      "min":953,
      "uss":954,
      "google":955,
      "Ġcan":956,
      "ĠEng":957,
      "eop":958,
      "Ġres":959,
      "21":960,
      "Ġ[":961,
      "lex":962,
      "har":963,
      "ution":964,
      "ĠIt":965,
      "ces":966,
      "Ġ7":967,
      "ystem":968,
      "edia":969,
      "ĠPress":970,
      "pro":971,
      "eld":972,
      "ix":973,
      "ica":974,
      "rist":975,
      "Ġ8":976,
      "arg":977,
      "ĠHe":978,
      "ild":979,
      "ier":980,
      "sc":981,
      "ward":982,
      "ograph":983,
      "Ġused":984,
      "olit":985,
      "cont":986,
      "ert":987,
      "ject":988,
      ";|":989,
      "oot":990,
      "35":991,
      "PA":992,
      "oth":993,
      "ĠAugust":994,
      "aj":995,
      "ĠNew":996,
      "ade":997,
      "lag":998,
      "Ġall":999,
      "Ġev":1000,
      "ins":1001,
      "ina":1002,
      "cre":1003,
      "Ġpart":1004,
      "Ġte":1005,
      "Ġplay":1006,
      "yn":1007,
      "Ġsuch":1008,
      "issue":1009,
      "ax":1010,
      "sub":1011,
      "Ġmore":1012,
      "erman":1013,
      "197":1014,
      "roup":1015,
      "ays":1016,
      "ĠSp":1017,
      "Un":1018,
      "he":1019,
      "Ġpre":1020,
      "Ġcons":1021,
      "Ġreg":1022,
      "33":1023,
      ";/&":1024,
      "als":1025,
      "emb":1026,
      "Ġact":1027,
      "Ġcl":1028,
      "ames":1029,
      "yc":1030,
      "ities":1031,
      "Ġtwo":1032,
      "apt":1033,
      "ĠMay":1034,
      "Ġinto":1035,
      "Ġj":1036,
      "ym":1037,
      "urn":1038,
      "ou":1039,
      "ĊĠĠ":1040,
      "ĠUniversity":1041,
      "Ġthey":1042,
      "Ġro":1043,
      "ever":1044,
      "ĠĊ":1045,
      "iam":1046,
      "Ġafter":1047,
      "Ġmost":1048,
      "Ġ198":1049,
      "ĠApril":1050,
      "Ġwork":1051,
      "Ġph":1052,
      "ĠCon":1053,
      "Ġund":1054,
      "overn":1055,
      "Ġlast":1056,
      "Ġ9":1057,
      "Ġover":1058,
      "col":1059,
      "]]&":1060,
      "Ġam":1061,
      "Ġbet":1062,
      "mall":1063,
      "af":1064,
      "oph":1065,
      "44":1066,
      "ased":1067,
      "ident":1068,
      "ilm":1069,
      "Ġ17":1070,
      "article":1071,
      ".|":1072,
      "eople":1073,
      "Ġgen":1074,
      "link":1075,
      "enn":1076,
      "Ġind":1077,
      "my":1078,
      "edu":1079,
      "ript":1080,
      "ick":1081,
      "vert":1082,
      "ars":1083,
      "air":1084,
      "ife":1085,
      "ĠOctober":1086,
      "Ġ10":1087,
      "Ġhigh":1088,
      "ĠJanuary":1089,
      "ĠMarch":1090,
      "fr":1091,
      "ature":1092,
      "ween":1093,
      "ince":1094,
      "Ġ-":1095,
      "lang":1096,
      "ists":1097,
      "orth":1098,
      "oman":1099,
      "Ġthan":1100,
      "Ġexp":1101,
      "ari":1102,
      "Ġform":1103,
      "||":1104,
      "urch":1105,
      "Ġsub":1106,
      "ĠStates":1107,
      "36":1108,
      "dead":1109,
      "duc":1110,
      "34":1111,
      "Ġup":1112,
      "Ġatt":1113,
      "ribut":1114,
      "eng":1115,
      "ise":1116,
      "lu":1117,
      "ural":1118,
      "Ġ16":1119,
      "its":1120,
      "ten":1121,
      "urope":1122,
      "irect":1123,
      "ae":1124,
      "umber":1125,
      "ĠDecember":1126,
      "Ġkn":1127,
      "ĠYork":1128,
      "ĠJuly":1129,
      "ered":1130,
      "ĠInd":1131,
      "stit":1132,
      "ley":1133,
      ")&":1134,
      "born":1135,
      "let":1136,
      "Ġref":1137,
      "velop":1138,
      "Ġbec":1139,
      "Ġlo":1140,
      "Ġsome":1141,
      "ose":1142,
      "alt":1143,
      "38":1144,
      "line":1145,
      "Ġinter":1146,
      "ĠJune":1147,
      "ĠPro":1148,
      "odel":1149,
      "mid":1150,
      "ĠII":1151,
      "Ġdo":1152,
      "Ġ197":1153,
      "be":1154,
      "ures":1155,
      "ĠIs":1156,
      "45":1157,
      "arl":1158,
      "istor":1159,
      "ustral":1160,
      "ĠSeptember":1161,
      "Ġso":1162,
      "ough":1163,
      "Ġ15":1164,
      "=\"":1165,
      "ĠBrit":1166,
      "Ġsup":1167,
      "wik":1168,
      "Ġout":1169,
      "ale":1170,
      "39":1171,
      "Ġbetween":1172,
      "196":1173,
      "pol":1174,
      "ball":1175,
      "37":1176,
      "Ġra":1177,
      "ating":1178,
      "very":1179,
      "ĠWar":1180,
      "erg":1181,
      "Ġpop":1182,
      "pres":1183,
      "arly":1184,
      "Ġtime":1185,
      ";,":1186,
      "Ġwould":1187,
      "ns":1188,
      "mun":1189,
      "oy":1190,
      "Ġnew":1191,
      "ments":1192,
      "Ġter":1193,
      "Ġonly":1194,
      "Ġoff":1195,
      "rough":1196,
      "ĠNovember":1197,
      "Ġass":1198,
      "cient":1199,
      "rol":1200,
      "ai":1201,
      "Ġurl":1202,
      "eter":1203,
      "ital":1204,
      "by":1205,
      "agaz":1206,
      "vision":1207,
      "sup":1208,
      "gh":1209,
      "Ġem":1210,
      "ake":1211,
      ";[[":1212,
      "anc":1213,
      "ata":1214,
      "Ġsystem":1215,
      "usic":1216,
      "ible":1217,
      "eries":1218,
      "Ġdec":1219,
      "Ġpo":1220,
      "ught":1221,
      "ians":1222,
      "Ġsc":1223,
      "Ġ}}":1224,
      "ote":1225,
      "back":1226,
      "ĠThis":1227,
      "ĠFebruary":1228,
      "ally":1229,
      "ett":1230,
      "Ġco":1231,
      "ily":1232,
      "ange":1233,
      "Ġint":1234,
      "agazine":1235,
      "eed":1236,
      "ock":1237,
      "Ġpres":1238,
      "ternational":1239,
      "31":1240,
      "ĠAm":1241,
      "ely":1242,
      "47":1243,
      "46":1244,
      "Ġher":1245,
      "Ġdate":1246,
      "ulation":1247,
      "cc":1248,
      "ĠEnglish":1249,
      "ĠSh":1250,
      "erson":1251,
      "lack":1252,
      "ives":1253,
      "ius":1254,
      "arn":1255,
      "etail":1256,
      "atic":1257,
      "48":1258,
      "Ġcount":1259,
      "ank":1260,
      "Ġhim":1261,
      "apter":1262,
      "itation":1263,
      "Ġ==":1264,
      "yl":1265,
      "Ġwhen":1266,
      "55":1267,
      "ĠUnited":1268,
      "Ġunder":1269,
      "cept":1270,
      "span":1271,
      "ford":1272,
      "ink":1273,
      "Ġy":1274,
      "49":1275,
      "Ġdef":1276,
      "John":1277,
      "ground":1278,
      "px":1279,
      "pos":1280,
      "Ġ196":1281,
      "ike":1282,
      "bs":1283,
      "Ġlanguage":1284,
      "ĠAt":1285,
      "Ġfound":1286,
      "new":1287,
      "Ġelect":1288,
      "Ġthere":1289,
      "ĠFor":1290,
      "Ġspec":1291,
      "itt":1292,
      "Ġmay":1293,
      "ield":1294,
      "Ġ'":1295,
      "Ġduring":1296,
      "ĠPh":1297,
      "arent":1298,
      "yclop":1299,
      "Ġabout":1300,
      "100":1301,
      "ott":1302,
      "med":1303,
      "que":1304,
      "Ġcal":1305,
      "cience":1306,
      "ple":1307,
      "Ġ'''":1308,
      "ĠOr":1309,
      "bert":1310,
      "chn":1311,
      "Ġpos":1312,
      "Ġyears":1313,
      "arb":1314,
      "ont":1315,
      "ery":1316,
      "Sh":1317,
      "view":1318,
      "ved":1319,
      "vent":1320,
      ",&":1321,
      "Ġthrough":1322,
      "ander":1323,
      "died":1324,
      "mp":1325,
      "rew":1326,
      "inn":1327,
      "econd":1328,
      "ences":1329,
      "ĠWh":1330,
      "ollow":1331,
      "Ġdif":1332,
      "iety":1333,
      "ration":1334,
      "irc":1335,
      "ool":1336,
      "Ġrem":1337,
      "urg":1338,
      "ĠWorld":1339,
      "net":1340,
      "ized":1341,
      "light":1342,
      "ĠHistory":1343,
      "ouse":1344,
      "ĠZ":1345,
      "Ġest":1346,
      "Ġpeople":1347,
      "ants":1348,
      "ke":1349,
      "Ġuse":1350,
      "other":1351,
      "ĠĠĠĠĠĠĠĠĠĠĠĠ":1352,
      "New":1353,
      "Ġmany":1354,
      "50":1355,
      "me":1356,
      "ute":1357,
      "play":1358,
      "wh":1359,
      "Ġauthor":1360,
      "**":1361,
      "]]|":1362,
      "ator":1363,
      "ĠSch":1364,
      "ets":1365,
      "wn":1366,
      "vel":1367,
      "fore":1368,
      "ĠGerman":1369,
      "US":1370,
      "56":1371,
      "ret":1372,
      "overnment":1373,
      "/|":1374,
      "ĠAd":1375,
      "oci":1376,
      "ung":1377,
      "ility":1378,
      "reg":1379,
      "ffect":1380,
      "val":1381,
      "idge":1382,
      "59":1383,
      "Ġtrans":1384,
      "Ġqu":1385,
      "Ġmon":1386,
      "rop":1387,
      "tim":1388,
      "ĠAs":1389,
      "detail":1390,
      "Ġdesc":1391,
      "Ġcentury":1392,
      "58":1393,
      "Ġknown":1394,
      "Ġno":1395,
      "vers":1396,
      "ĠLe":1397,
      "aint":1398,
      "Ġinf":1399,
      "Ġdevelop":1400,
      "inc":1401,
      "Ġwhere":1402,
      "harv":1403,
      "leg":1404,
      "Ġgroup":1405,
      "Ġ===":1406,
      "olic":1407,
      "code":1408,
      "ler":1409,
      "els":1410,
      "ste":1411,
      "Ã¡":1412,
      ";:":1413,
      "ower":1414,
      "Ġdep":1415,
      "Ġagain":1416,
      "Ph":1417,
      "bo":1418,
      "ruct":1419,
      "format":1420,
      "ional":1421,
      "ĠChrist":1422,
      "40":1423,
      "gram":1424,
      "âĢĶ":1425,
      "ĠPr":1426,
      "ootball":1427,
      "order":1428,
      "ĠAc":1429,
      "191":1430,
      "ason":1431,
      "ines":1432,
      "elf":1433,
      "iter":1434,
      "Ġed":1435,
      "Ġdist":1436,
      "Ġ\\":1437,
      "men":1438,
      "Ad":1439,
      "gen":1440,
      "ĠAf":1441,
      "arri":1442,
      "ĠAnd":1443,
      "ize":1444,
      "57":1445,
      "ma":1446,
      "way":1447,
      "195":1448,
      "ically":1449,
      "Ġpolit":1450,
      "ĠRep":1451,
      "origin":1452,
      "ilit":1453,
      "str":1454,
      "Ġadd":1455,
      "Ġwrit":1456,
      "Ġart":1457,
      "====":1458,
      "Ġnumber":1459,
      "ause":1460,
      "Ġiss":1461,
      "illion":1462,
      "ission":1463,
      "ĠEurope":1464,
      "center":1465,
      "odern":1466,
      "Am":1467,
      "Ġalign":1468,
      "ajor":1469,
      "ham":1470,
      "ulture":1471,
      "ĠBr":1472,
      "sk":1473,
      "bb":1474,
      "Ġend":1475,
      "Ġhttps":1476,
      "Ġrecord":1477,
      "Ġbu":1478,
      "Ġant":1479,
      "BA":1480,
      "por":1481,
      "Ġ0":1482,
      "BC":1483,
      "Ġsur":1484,
      "yclopedia":1485,
      "May":1486,
      "duct":1487,
      "Com":1488,
      "August":1489,
      "hip":1490,
      "Ġthem":1491,
      "details":1492,
      "Sp":1493,
      "Ġthese":1494,
      "ries":1495,
      "ban":1496,
      "ris":1497,
      "Ġstud":1498,
      "put":1499,
      "Ġlead":1500,
      "32":1501,
      "raft":1502,
      "duction":1503,
      "ĠEx":1504,
      "ĊĠĠĠĠĠĠĠĠ":1505,
      "olution":1506,
      "Ġfollow":1507,
      "iod":1508,
      "adem":1509,
      "67":1510,
      "off":1511,
      "ster":1512,
      "list":1513,
      "attle":1514,
      "background":1515,
      "Ġman":1516,
      "rench":1517,
      "Ġwe":1518,
      "ird":1519,
      "avid":1520,
      "Ġext":1521,
      "Ġstate":1522,
      "illiam":1523,
      "yd":1524,
      "Ġclass":1525,
      "chapter":1526,
      "owever":1527,
      "ps":1528,
      "Ġprov":1529,
      "ĠFran":1530,
      "imate":1531,
      "Ġsch":1532,
      "ually":1533,
      "Ġlow":1534,
      "ĠAg":1535,
      "ype":1536,
      "sha":1537,
      "Ġmade":1538,
      "ĠAustral":1539,
      "Ġbeing":1540,
      "uman":1541,
      "alth":1542,
      "dom":1543,
      "ene":1544,
      "Ġfilm":1545,
      "...":1546,
      "Ġincluding":1547,
      "ement":1548,
      "99":1549,
      "rab":1550,
      "world":1551,
      "ography":1552,
      "Ġcity":1553,
      "conom":1554,
      "pen":1555,
      "ibr":1556,
      "194":1557,
      "ele":1558,
      "ana":1559,
      "Ġlater":1560,
      "gan":1561,
      "li":1562,
      "rain":1563,
      "parent":1564,
      "January":1565,
      "arian":1566,
      "Ġserv":1567,
      "esp":1568,
      "American":1569,
      "model":1570,
      "uff":1571,
      "ony":1572,
      "ious":1573,
      "Ġ194":1574,
      "Ġret":1575,
      "iction":1576,
      "ization":1577,
      "]]'',":1578,
      "ĠQ":1579,
      "Ã¼":1580,
      "left":1581,
      "Ġtrad":1582,
      "Ġdiffer":1583,
      "ributor":1584,
      "Ġworld":1585,
      "And":1586,
      "Ġaccess":1587,
      "ane":1588,
      "aria":1589,
      "arty":1590,
      "useum":1591,
      "Ġboth":1592,
      "orm":1593,
      "nc":1594,
      "small":1595,
      "atch":1596,
      ";!":1597,
      "Ġwhile":1598,
      "aut":1599,
      "Ġsign":1600,
      "arge":1601,
      "lam":1602,
      "no":1603,
      "ĠBritish":1604,
      "ection":1605,
      "pollo":1606,
      "ha":1607,
      "yt":1608,
      "organ":1609,
      "ĠCent":1610,
      "AS":1611,
      "ues":1612,
      ";!--":1613,
      "ald":1614,
      "ĠDe":1615,
      "revision":1616,
      "ather":1617,
      "contributor":1618,
      "Ġorigin":1619,
      "lant":1620,
      "ĠSouth":1621,
      "estamp":1622,
      "Ġfe":1623,
      "dis":1624,
      "ama":1625,
      "timestamp":1626,
      "parentid":1627,
      "ull":1628,
      "}},":1629,
      "lock":1630,
      "Ġcalled":1631,
      "]])":1632,
      "aper":1633,
      "ername":1634,
      "April":1635,
      "ven":1636,
      "ĠSc":1637,
      "username":1638,
      "ask":1639,
      "ze":1640,
      "ological":1641,
      "Ġthree":1642,
      "icial":1643,
      "iew":1644,
      "iness":1645,
      "Ġwell":1646,
      "ounc":1647,
      "reek":1648,
      "ived":1649,
      "Ġ([[":1650,
      "Ġsing":1651,
      "ble":1652,
      "aur":1653,
      "Ġent":1654,
      "--&":1655,
      "ondon":1656,
      "authors":1657,
      "101":1658,
      "ister":1659,
      "harvnb":1660,
      "ross":1661,
      "uccess":1662,
      "Ġbecame":1663,
      "ices":1664,
      "Ġearly":1665,
      "Ġany":1666,
      "Ġarchive":1667,
      "gton":1668,
      "inal":1669,
      "ole":1670,
      "Ġbel":1671,
      "Wh":1672,
      "Ġthen":1673,
      "ription":1674,
      "ĠCol":1675,
      "86":1676,
      "Ġ11":1677,
      "comment":1678,
      "eorg":1679,
      "now":1680,
      "zer":1681,
      "aseb":1682,
      "quote":1683,
      "Ġsim":1684,
      "ĠÐ":1685,
      "ency":1686,
      "aking":1687,
      "flag":1688,
      "United":1689,
      "ves":1690,
      "aseball":1691,
      "At":1692,
      "ots":1693,
      "los":1694,
      "ger":1695,
      "Ġfam":1696,
      "arth":1697,
      "Ġ12":1698,
      "ling":1699,
      "udd":1700,
      "ases":1701,
      "iles":1702,
      "Ab":1703,
      "ington":1704,
      "osoph":1705,
      "rian":1706,
      "eph":1707,
      "Ġmin":1708,
      "ilitary":1709,
      "Ġ14":1710,
      "anad":1711,
      "Ġgeneral":1712,
      "itions":1713,
      "hol":1714,
      "ablish":1715,
      "54":1716,
      "Ġbro":1717,
      "ĠRev":1718,
      "alk":1719,
      "count":1720,
      "ired":1721,
      "IS":1722,
      "Ġcomm":1723,
      "omen":1724,
      "acter":1725,
      "March":1726,
      "87":1727,
      "Pr":1728,
      "ĠAss":1729,
      "ton":1730,
      "ĠAir":1731,
      "ĠGu":1732,
      "ĠKing":1733,
      "raz":1734,
      "}}{{":1735,
      "193":1736,
      "bi":1737,
      "ilosoph":1738,
      "usiness":1739,
      "ards":1740,
      "Ġdesign":1741,
      "doc":1742,
      "ĠAng":1743,
      "ca":1744,
      "history":1745,
      "Ġpublisher":1746,
      "ibrary":1747,
      "July":1748,
      "acy":1749,
      "Ġagainst":1750,
      "pmid":1751,
      "Ġmet":1752,
      "ague":1753,
      "ĠOn":1754,
      "June":1755,
      "sport":1756,
      "lab":1757,
      "Ġresult":1758,
      "aid":1759,
      "List":1760,
      "rand":1761,
      "190":1762,
      "Ġ195":1763,
      "urk":1764,
      "convert":1765,
      "itch":1766,
      "Ġloc":1767,
      "ner":1768,
      "II":1769,
      "Ġdirect":1770,
      "rel":1771,
      "epend":1772,
      "ociety":1773,
      "lexander":1774,
      "Ġvolume":1775,
      "ray":1776,
      "ck":1777,
      "trans":1778,
      "ats":1779,
      "ilt":1780,
      "Ġcontrol":1781,
      "Ġsever":1782,
      "ĠAb":1783,
      "name":1784,
      "lands":1785,
      "ĠChurch":1786,
      "berg":1787,
      "Ð°":1788,
      "Ġsupport":1789,
      "Ġlong":1790,
      "September":1791,
      "192":1792,
      "February":1793,
      "Ref":1794,
      "October":1795,
      "69":1796,
      "Ġdeath":1797,
      "ĠRe":1798,
      "bal":1799,
      "aul":1800,
      "Ġbefore":1801,
      "Ġdoi":1802,
      "rown":1803,
      "ful":1804,
      ":#":1805,
      "ument":1806,
      "ined":1807,
      "Ġoper":1808,
      "ised":1809,
      "Ġob":1810,
      "istan":1811,
      "Pro":1812,
      "ample":1813,
      "cid":1814,
      "''.":1815,
      "eth":1816,
      "Ġneed":1817,
      "ml":1818,
      "88":1819,
      "Ġland":1820,
      "xt":1821,
      "Ġsecond":1822,
      "ains":1823,
      "Ġ13":1824,
      "Ġback":1825,
      "day":1826,
      "Har":1827,
      "ĠSe":1828,
      "ears":1829,
      "ĠAnt":1830,
      "inu":1831,
      "ĠJohn":1832,
      "php":1833,
      "til":1834,
      "erve":1835,
      "ract":1836,
      "43":1837,
      "aus":1838,
      "77":1839,
      "ides":1840,
      "ÃŃ":1841,
      ";.":1842,
      "Con":1843,
      "ially":1844,
      "ained":1845,
      "Ġ30":1846,
      "]]'":1847,
      "duced":1848,
      "Ġresp":1849,
      "Ġissue":1850,
      "Ġstr":1851,
      "Ġcould":1852,
      "Ġsame":1853,
      "Ġocc":1854,
      "Ġlarg":1855,
      "Äģ":1856,
      "De":1857,
      "December":1858,
      "Ġeffect":1859,
      "cording":1860,
      "66":1861,
      "Ġpages":1862,
      "ĠMar":1863,
      "Sfn":1864,
      "Ġconsid":1865,
      "42":1866,
      "tt":1867,
      "Ġcap":1868,
      "Ġestablish":1869,
      "Ġchar":1870,
      "Ġ193":1871,
      "ody":1872,
      "ani":1873,
      "ship":1874,
      "aced":1875,
      "Ġoften":1876,
      "irth":1877,
      "Ġ192":1878,
      "istry":1879,
      "Ġcommon":1880,
      "ĠWest":1881,
      "Ġown":1882,
      "89":1883,
      "Ġmajor":1884,
      "reen":1885,
      "iver":1886,
      "51":1887,
      "ites":1888,
      "Ã¶":1889,
      "Ġ({{":1890,
      "Ġgovernment":1891,
      "Ġsuccess":1892,
      "ones":1893,
      "ibcode":1894,
      "rent":1895,
      "ĠUS":1896,
      "Ġright":1897,
      "Ġimage":1898,
      "sch":1899,
      "wards":1900,
      "der":1901,
      "ĠHer":1902,
      "ids":1903,
      ";[":1904,
      "Ġinv":1905,
      "omet":1906,
      "stor":1907,
      "ek":1908,
      "ĠRuss":1909,
      "articles":1910,
      "ney":1911,
      "41":1912,
      "ourt":1913,
      "Ġtr":1914,
      "Ġwar":1915,
      "ads":1916,
      "omin":1917,
      "Ġmed":1918,
      "53":1919,
      "ĠCl":1920,
      "ĠNational":1921,
      "Ġincre":1922,
      "space":1923,
      "Ġwill":1924,
      "lection":1925,
      "52":1926,
      "ara":1927,
      "amed":1928,
      "ĠRoman":1929,
      "ivil":1930,
      "xford":1931,
      "bit":1932,
      "Ġsince":1933,
      "lor":1934,
      "Ġplayer":1935,
      "ria":1936,
      "ĠBel":1937,
      "ĠBook":1938,
      "Ġfour":1939,
      "Ġ26":1940,
      "razil":1941,
      "Ġlaw":1942,
      "ĠComp":1943,
      "FF":1944,
      "ales":1945,
      "Ġpopulation":1946,
      "Or":1947,
      "idd":1948,
      "app":1949,
      "Ġ191":1950,
      "Ġif":1951,
      "gy":1952,
      "oon":1953,
      "ĠMed":1954,
      "Ġarea":1955,
      "ael":1956,
      "ources":1957,
      "Mar":1958,
      "Ð¾":1959,
      "ĠArt":1960,
      "ality":1961,
      "top":1962,
      "unch":1963,
      "ified":1964,
      "Ġcre":1965,
      "ource":1966,
      "ĠBC":1967,
      "ness":1968,
      "Ġmain":1969,
      "ali":1970,
      "anguages":1971,
      "Fran":1972,
      "Ind":1973,
      "magazine":1974,
      "Ġshow":1975,
      "Is":1976,
      "ĠNews":1977,
      "Ġx":1978,
      "Ġlife":1979,
      "November":1980,
      "press":1981,
      "ĠAmer":1982,
      "ĠJournal":1983,
      "79":1984,
      "Brit":1985,
      "fa":1986,
      "ĠEmp":1987,
      "embers":1988,
      "Ġseveral":1989,
      "ĠBe":1990,
      "Ġdifferent":1991,
      "ghan":1992,
      "ided":1993,
      "ĠTimes":1994,
      "ocial":1995,
      "Ġrele":1996,
      "present":1997,
      "Ġbecause":1998,
      "bridge":1999,
      "Ġpublic":2000,
      "ared":2001,
      "icon":2002,
      "ĠFrench":2003,
      "come":2004,
      "style":2005,
      "ĠTe":2006,
      "iron":2007,
      "ician":2008,
      "ief":2009,
      "Ġele":2010,
      "National":2011,
      "Ġ21":2012,
      "Ġmark":2013,
      "|''":2014,
      "war":2015,
      "apan":2016,
      "Ant":2017,
      "80":2018,
      "ll":2019,
      "urther":2020,
      "Ġeach":2021,
      "Le":2022,
      "ille":2023,
      "met":2024,
      "read":2025,
      "Ġleg":2026,
      "Ġrefer":2027,
      "idth":2028,
      "Ġhistory":2029,
      "Ġsmall":2030,
      "reed":2031,
      "Ð¸":2032,
      "sy":2033,
      "Ðµ":2034,
      "Ġimport":2035,
      "atter":2036,
      "Ġcountry":2037,
      "though":2038,
      "formation":2039,
      "Ġ(''":2040,
      "Ġval":2041,
      "mith":2042,
      "oint":2043,
      "ense":2044,
      "ĠBer":2045,
      "Ġappro":2046,
      "Ġuntil":2047,
      "ulg":2048,
      "free":2049,
      "chem":2050,
      "rica":2051,
      "Ġequ":2052,
      "Ġaround":2053,
      "Ġarch":2054,
      "na":2055,
      "Ġ25":2056,
      "Ġ27":2057,
      ";.&":2058,
      "Ġexample":2059,
      "newsp":2060,
      "ipp":2061,
      "Ġcolor":2062,
      "136":2063,
      "obert":2064,
      "index":2065,
      "Ac":2066,
      "rug":2067,
      "As":2068,
      "mc":2069,
      "Ex":2070,
      "edition":2071,
      ").&":2072,
      "des":2073,
      "Ġusing":2074,
      "ĠApp":2075,
      "laim":2076,
      "Ġpower":2077,
      "comp":2078,
      "Ġpartic":2079,
      "Ġfun":2080,
      "ĠMin":2081,
      "era":2082,
      "Ġseries":2083,
      "Ġperiod":2084,
      "Ġlarge":2085,
      "Ġcor":2086,
      "Ġconf":2087,
      "Ġhistor":2088,
      "Ġann":2089,
      "76":2090,
      "gu":2091,
      "log":2092,
      "Ġrec":2093,
      "atural":2094,
      "Ġfootball":2095,
      "Ġreport":2096,
      "ush":2097,
      "Ġnear":2098,
      "ison":2099,
      "oz":2100,
      "Main":2101,
      "iving":2102,
      "Ġperson":2103,
      "ival":2104,
      "Sch":2105,
      "Ġ/":2106,
      "vg":2107,
      "Ġorgan":2108,
      "ended":2109,
      "BAJ":2110,
      "eck":2111,
      "thod":2112,
      "ĠArch":2113,
      "inter":2114,
      "Ġpp":2115,
      "ware":2116,
      "aces":2117,
      "ensus":2118,
      "icro":2119,
      "oll":2120,
      "Ġdid":2121,
      "Ġinclude":2122,
      "Ġshe":2123,
      "Ġprot":2124,
      "Ed":2125,
      "David":2126,
      "ocr":2127,
      "arm":2128,
      "ior":2129,
      "ĠEmpire":2130,
      "bum":2131,
      "istic":2132,
      "Ġcommun":2133,
      "Ġrequ":2134,
      "ty":2135,
      "Ġprogram":2136,
      "Ġgu":2137,
      "Br":2138,
      "William":2139,
      "Ġvers":2140,
      "Ġset":2141,
      "Ġ29":2142,
      "135":2143,
      "gypt":2144,
      "On":2145,
      "ambridge":2146,
      "otal":2147,
      "board":2148,
      "post":2149,
      "ichael":2150,
      "Ġlike":2151,
      ".,":2152,
      "urrent":2153,
      "Ġsouth":2154,
      "Ġgame":2155,
      "ean":2156,
      "Ġrelations":2157,
      "ured":2158,
      "search":2159,
      "Ġcapt":2160,
      "gr":2161,
      "not":2162,
      "He":2163,
      "aster":2164,
      "BN":2165,
      "lobal":2166,
      "Ġamong":2167,
      "amb":2168,
      "Ġallow":2169,
      "Ã³":2170,
      "ĠGen":2171,
      "inf":2172,
      "Ġpri":2173,
      "Ġposs":2174,
      "ĠAmerica":2175,
      "side":2176,
      "Ġbased":2177,
      "ering":2178,
      "ĠEd":2179,
      "lim":2180,
      "Ġconst":2181,
      "210":2182,
      "ĠAll":2183,
      "ĠGreek":2184,
      "istics":2185,
      "Ġ28":2186,
      "Ġ24":2187,
      "Ġthose":2188,
      "iven":2189,
      "stron":2190,
      "Web":2191,
      "wood":2192,
      "ĠAct":2193,
      "ertain":2194,
      "Ġve":2195,
      "Ġinflu":2196,
      "Ġeconom":2197,
      "Ġprocess":2198,
      "ification":2199,
      "Ġvari":2200,
      "ories":2201,
      "Ġair":2202,
      "Ġne":2203,
      "IPA":2204,
      "km":2205,
      "Ġeng":2206,
      "Ġdescrib":2207,
      "ĠPl":2208,
      "AT":2209,
      "bibcode":2210,
      "ĠHowever":2211,
      "issn":2212,
      "Ġet":2213,
      "Ġtext":2214,
      "Ġtechn":2215,
      "rict":2216,
      "Ġpublish":2217,
      "public":2218,
      "ental":2219,
      "ky":2220,
      "ichard":2221,
      "ĠCar":2222,
      "Ġder":2223,
      "eorge":2224,
      "Ġbr":2225,
      "ront":2226,
      "Ġmodern":2227,
      "109":2228,
      "96":2229,
      "urs":2230,
      "ij":2231,
      "wiki":2232,
      "*{{":2233,
      "Ġword":2234,
      "ĠCanad":2235,
      "111":2236,
      "Ġenc":2237,
      "rowspan":2238,
      "]]:":2239,
      "Ġmean":2240,
      "Ġwithin":2241,
      "artin":2242,
      "frican":2243,
      "Ġdiv":2244,
      "Ġmusic":2245,
      "World":2246,
      "mar":2247,
      "}}.":2248,
      "Ġtem":2249,
      "itional":2250,
      "Ġteam":2251,
      "ĠX":2252,
      "Ġexper":2253,
      "ĠArab":2254,
      "Ġ190":2255,
      "Ð½":2256,
      "Ġwater":2257,
      "fact":2258,
      "Ġfact":2259,
      "ĠStud":2260,
      "ĠEast":2261,
      "ĠSociety":2262,
      "oss":2263,
      "aving":2264,
      "tes":2265,
      "ĠThey":2266,
      "Ġtra":2267,
      "aff":2268,
      "ĠInternational":2269,
      "pe":2270,
      "tr":2271,
      "ardian":2272,
      "ination":2273,
      "Ġdem":2274,
      "Ġtyp":2275,
      "thers":2276,
      "QBAJ":2277,
      "Christ":2278,
      "gest":2279,
      "Ġ22":2280,
      "ĠComm":2281,
      "amer":2282,
      "ĠMuseum":2283,
      "ĠBy":2284,
      "burg":2285,
      "arles":2286,
      "stitute":2287,
      "Ġ$":2288,
      "ston":2289,
      "ola":2290,
      "ĠEngland":2291,
      "Ġstand":2292,
      "ĠMan":2293,
      "IC":2294,
      "97":2295,
      "ĠChristian":2296,
      "Ġeven":2297,
      "Ġwr":2298,
      "ĠState":2299,
      "Ġpass":2300,
      "Sc":2301,
      "Ġnon":2302,
      "Ġâ":2303,
      "ashington":2304,
      "Ġrun":2305,
      "RE":2306,
      "istration":2307,
      "Ġchild":2308,
      "mi":2309,
      "omas":2310,
      "idence":2311,
      "uments":2312,
      "content":2313,
      "ient":2314,
      "oe":2315,
      "rael":2316,
      "atin":2317,
      "110":2318,
      "iqu":2319,
      "van":2320,
      "ultural":2321,
      "itive":2322,
      "University":2323,
      "jan":2324,
      "omy":2325,
      "Re":2326,
      "ĠHis":2327,
      "Ġopp":2328,
      "Ġ23":2329,
      "cover":2330,
      "aries":2331,
      "108":2332,
      "ĠUnion":2333,
      "stitution":2334,
      "eration":2335,
      "Ġpresent":2336,
      "ming":2337,
      "Ġdays":2338,
      "ĠItal":2339,
      "Ag":2340,
      "Ġrece":2341,
      "Ġhand":2342,
      "ape":2343,
      "Ġbegan":2344,
      "ought":2345,
      "ĠParty":2346,
      "Ġnow":2347,
      "opt":2348,
      "ictionary":2349,
      "South":2350,
      "hib":2351,
      "ops":2352,
      "ĠCity":2353,
      "Ġsha":2354,
      "Ġrelig":2355,
      "brit":2356,
      "Ġmembers":2357,
      "Ġpar":2358,
      "erence":2359,
      "omb":2360,
      "lear":2361,
      "Ġdue":2362,
      "ros":2363,
      "Ġlanguages":2364,
      "emat":2365,
      "History":2366,
      "etic":2367,
      "ouncil":2368,
      "Ġfin":2369,
      ")]]":2370,
      "Ġfamily":2371,
      "Ġfollowing":2372,
      "ogn":2373,
      "itect":2374,
      "ĠCal":2375,
      "place":2376,
      "Ġanal":2377,
      "Eng":2378,
      "vo":2379,
      "ula":2380,
      "Ġnational":2381,
      "Ġestablished":2382,
      "oly":2383,
      "loy":2384,
      "ĠNorth":2385,
      "cip":2386,
      "hi":2387,
      "Ġfore":2388,
      "See":2389,
      "ential":2390,
      "stein":2391,
      "Ġmuch":2392,
      "ergy":2393,
      "Ġstat":2394,
      "oyal":2395,
      "bel":2396,
      "ociation":2397,
      "atures":2398,
      "svg":2399,
      "ude":2400,
      "Ġ--&":2401,
      "ledge":2402,
      "color":2403,
      "Ġlink":2404,
      "her":2405,
      "It":2406,
      ".]]":2407,
      "Ġneeded":2408,
      "alf":2409,
      "Ġvis":2410,
      "rick":2411,
      "Ġprom":2412,
      "Ġmagazine":2413,
      "ether":2414,
      "Ġcomput":2415,
      "ĠPublish":2416,
      "300":2417,
      "ĠEn":2418,
      "Ġhead":2419,
      "ÑĢ":2420,
      "atholic":2421,
      "Be":2422,
      "Cl":2423,
      "001":2424,
      "Ġregion":2425,
      "ĠCount":2426,
      "empt":2427,
      "Ġbytes":2428,
      "Ġport":2429,
      "Ġlist":2430,
      "Ġleft":2431,
      "ependent":2432,
      "nyt":2433,
      "agn":2434,
      "vest":2435,
      "AC":2436,
      "Ġmove":2437,
      "Ġschool":2438,
      "Ġalong":2439,
      "lue":2440,
      "mark":2441,
      "viron":2442,
      "olar":2443,
      "anish":2444,
      "Ġcountries":2445,
      "102":2446,
      "Ġterm":2447,
      "Ġpat":2448,
      "chan":2449,
      "Ġcamp":2450,
      "ilar":2451,
      "most":2452,
      "120":2453,
      "Ġvauthors":2454,
      "ĠBudd":2455,
      "ideo":2456,
      "ĠApollo":2457,
      "Ġpoint":2458,
      "newspaper":2459,
      "asp":2460,
      "Ġold":2461,
      "ysis":2462,
      "century":2463,
      "Ġstill":2464,
      "ncyclopedia":2465,
      "ĠĠĠĠĠĠĠĠĠ":2466,
      "Ġplace":2467,
      "Ġhuman":2468,
      "unt":2469,
      "ĠLeague":2470,
      "68":2471,
      "Ġhel":2472,
      "less":2473,
      "Ġrepresent":2474,
      "da":2475,
      "]]}}":2476,
      "writ":2477,
      "story":2478,
      "ructure":2479,
      "ES":2480,
      "Ġmod":2481,
      "'')":2482,
      "ĠAustralian":2483,
      "Ġri":2484,
      "Ġmodel":2485,
      "Ġbuild":2486,
      "bor":2487,
      "Ġcrit":2488,
      "ĠPar":2489,
      "ĠKingdom":2490,
      "Ġpublished":2491,
      "Ġtri":2492,
      "Ġ+":2493,
      "98":2494,
      "Ġreturn":2495,
      "Ġtop":2496,
      "103":2497,
      "nytimes":2498,
      "quent":2499,
      "avy":2500,
      "Ġmilitary":2501,
      "ules":2502,
      "incip":2503,
      "Ġconsidered":2504,
      "Robert":2505,
      "las":2506,
      "Ġrad":2507,
      "Ġpopular":2508,
      "Ġvery":2509,
      "Ġrest":2510,
      "ĠCo":2511,
      "ule":2512,
      "Ġstart":2513,
      "iled":2514,
      "Ġacc":2515,
      "rag":2516,
      "Ġwhat":2517,
      "Ġled":2518,
      "El":2519,
      "lican":2520,
      "ĠThese":2521,
      "Ġdevelopment":2522,
      "ways":2523,
      "Ġcharacter":2524,
      "ĠPres":2525,
      "Col":2526,
      "ĠLondon":2527,
      "win":2528,
      "ĠMon":2529,
      "Ġlin":2530,
      "eus":2531,
      "igu":2532,
      "ĠDay":2533,
      "Ġopen":2534,
      "Ġadv":2535,
      "gin":2536,
      "ĠĠĠĠĠĠ":2537,
      "imal":2538,
      "fess":2539,
      "\">":2540,
      "yth":2541,
      "ruction":2542,
      "rem":2543,
      "FA":2544,
      "ĠGod":2545,
      "preserve":2546,
      "cal":2547,
      "Ġseason":2548,
      "ced":2549,
      "Ġread":2550,
      "]].{{":2551,
      "go":2552,
      "crease":2553,
      "Ġtreat":2554,
      "Ġclaim":2555,
      "itext":2556,
      "Ġorder":2557,
      "lain":2558,
      "abbr":2559,
      "Flag":2560,
      "Ġcompos":2561,
      "ĠIndia":2562,
      "sych":2563,
      "ĠÃ":2564,
      "Ġxml":2565,
      "Ñģ":2566,
      "inger":2567,
      "Ġofficial":2568,
      "189":2569,
      "wikitext":2570,
      "ours":2571,
      "Ġcontinu":2572,
      "ĠAth":2573,
      "Ġpolitician":2574,
      "ID":2575,
      "stand":2576,
      "annica":2577,
      "akes":2578,
      "]]</":2579,
      "ĠCor":2580,
      "ising":2581,
      "icine":2582,
      "ĠSw":2583,
      "Ġ100":2584,
      "rest":2585,
      "ĠBi":2586,
      "ĠAfrica":2587,
      "ĠAustralia":2588,
      "udi":2589,
      "do":2590,
      "ĠScience":2591,
      "ĠĠĠĠĠĠĠ":2592,
      "ĠEgypt":2593,
      "ternal":2594,
      "Mc":2595,
      "Ġsaid":2596,
      "Ġbirth":2597,
      "Ġshort":2598,
      "ability":2599,
      "arry":2600,
      "Ġlive":2601,
      "ĠThere":2602,
      "Ġident":2603,
      "ĠLab":2604,
      "ĠIII":2605,
      "Oxford":2606,
      "ISBN":2607,
      "aterial":2608,
      "ected":2609,
      "Ġpract":2610,
      "ena":2611,
      "ĠQu":2612,
      "60":2613,
      "ĠJapan":2614,
      "aily":2615,
      "esearch":2616,
      "British":2617,
      "Ġcell":2618,
      "AR":2619,
      "face":2620,
      "AM":2621,
      "Ġgo":2622,
      "Arch":2623,
      "For":2624,
      "Ġcomb":2625,
      "raw":2626,
      "90":2627,
      "ircraft":2628,
      "Î±":2629,
      "Ġactiv":2630,
      "fe":2631,
      "part":2632,
      "ĠPort":2633,
      "state":2634,
      "bai":2635,
      "iber":2636,
      "ya":2637,
      "ghanistan":2638,
      "ĠAust":2639,
      "Ġimportant":2640,
      "ih":2641,
      "ĠEuropean":2642,
      ";''":2643,
      "sw":2644,
      "Ġline":2645,
      "Ġphys":2646,
      "Ġwithout":2647,
      "ias":2648,
      "Webarchive":2649,
      "ÑĤ":2650,
      "ico":2651,
      "ovel":2652,
      "Apollo":2653,
      "Ġvarious":2654,
      "esis":2655,
      "vironment":2656,
      "music":2657,
      "ademy":2658,
      "arr":2659,
      "ither":2660,
      "Ġspecies":2661,
      "Ġsym":2662,
      "ĠBrazil":2663,
      "Ġfield":2664,
      "ĠReg":2665,
      "otes":2666,
      "Ġless":2667,
      "bserv":2668,
      "Ġpmid":2669,
      "Ġlate":2670,
      "atal":2671,
      "Ġanother":2672,
      "sen":2673,
      "cons":2674,
      "bbc":2675,
      "Ġsett":2676,
      "asa":2677,
      "Ġparticular":2678,
      "Ġdata":2679,
      "Ġcr":2680,
      "Ber":2681,
      "uda":2682,
      "ransport":2683,
      "ultip":2684,
      "type":2685,
      "Ġmillion":2686,
      "ills":2687,
      "oviet":2688,
      "James":2689,
      "Ġage":2690,
      "ably":2691,
      "Austral":2692,
      "cor":2693,
      "Ġson":2694,
      "Ġsimilar":2695,
      "Roman":2696,
      "ored":2697,
      "130":2698,
      "ensive":2699,
      "Ġintro":2700,
      "fl":2701,
      "with":2702,
      "yr":2703,
      "upright":2704,
      "mad":2705,
      "={{":2706,
      "Ġformer":2707,
      "Ġking":2708,
      "Ġemp":2709,
      "Ġsug":2710,
      "Ġbo":2711,
      "ique":2712,
      "Ġattack":2713,
      "Ġisbn":2714,
      "ificant":2715,
      "arus":2716,
      "ĠAfter":2717,
      "arliam":2718,
      "oms":2719,
      "Ġbas":2720,
      "Ġprim":2721,
      "Ang":2722,
      "Ġhome":2723,
      "ĠCont":2724,
      "ilosophy":2725,
      "ii":2726,
      "Ġlim":2727,
      "icle":2728,
      "Ġfree":2729,
      "Ġgiven":2730,
      "ving":2731,
      "par":2732,
      "Ġsec":2733,
      "field":2734,
      "iddle":2735,
      "alo":2736,
      "Ġrowspan":2737,
      ")}}":2738,
      "ĠĠĠĠĠĠĠĠĠĠ":2739,
      "enry":2740,
      "Ġevery":2741,
      "West":2742,
      "itz":2743,
      "bol":2744,
      "ĠAlexander":2745,
      "112":2746,
      "Ġmov":2747,
      "arliament":2748,
      "ĠPer":2749,
      "ĠMor":2750,
      "Ġproper":2751,
      "Ġproduct":2752,
      "DP":2753,
      "]];":2754,
      "Ġstates":2755,
      "Citation":2756,
      "Ġday":2757,
      "artment":2758,
      "orther":2759,
      "Ġ186":2760,
      "Ġjust":2761,
      "ream":2762,
      "ĠAfrican":2763,
      "utt":2764,
      "rap":2765,
      "Michael":2766,
      "oday":2767,
      "Ġ189":2768,
      "jects":2769,
      "about":2770,
      "Ġpolitical":2771,
      "ino":2772,
      "ivid":2773,
      "ĠWe":2774,
      "Ġmake":2775,
      "187":2776,
      "utch":2777,
      "uz":2778,
      "Ġnamed":2779,
      "nl":2780,
      "orthern":2781,
      "ĠPal":2782,
      "ĠRec":2783,
      "well":2784,
      "AL":2785,
      "block":2786,
      "Ġfunction":2787,
      "files":2788,
      "erc":2789,
      "105":2790,
      "Ġide":2791,
      "err":2792,
      "rank":2793,
      "]],&":2794,
      "time":2795,
      "Ġsold":2796,
      "107":2797,
      "ago":2798,
      "lexand":2799,
      "och":2800,
      "Ġdisplay":2801,
      "ĠHouse":2802,
      "ĠArmy":2803,
      "ka":2804,
      "aged":2805,
      "emocr":2806,
      "Ġproduction":2807,
      "eal":2808,
      "ĠMc":2809,
      "Ġbelie":2810,
      "uel":2811,
      "ĠArmen":2812,
      "Ġelection":2813,
      "ĠBlack":2814,
      "ĠGermany":2815,
      "aspx":2816,
      "Ġinst":2817,
      "ingu":2818,
      "180":2819,
      "Ġlight":2820,
      "uck":2821,
      "ios":2822,
      "ĠBo":2823,
      "160":2824,
      "transl":2825,
      "png":2826,
      "ederal":2827,
      "Ġcond":2828,
      "''&":2829,
      "etwork":2830,
      "Ġindust":2831,
      "International":2832,
      "lege":2833,
      "186":2834,
      "apers":2835,
      "illa":2836,
      "Ġdeveloped":2837,
      "eak":2838,
      "rd":2839,
      "Ġbody":2840,
      "002":2841,
      "CO":2842,
      "ention":2843,
      "ona":2844,
      "Ġsignificant":2845,
      "ba":2846,
      "inning":2847,
      "Ġtest":2848,
      "Ġgrow":2849,
      "AAQBAJ":2850,
      "Ġmen":2851,
      "ĠFrance":2852,
      "can":2853,
      "Af":2854,
      "ĠSystem":2855,
      "Ġlargest":2856,
      "class":2857,
      "ydro":2858,
      "Ġtook":2859,
      "ĠEm":2860,
      "Ġexist":2861,
      "ends":2862,
      "itable":2863,
      "eur":2864,
      "esc":2865,
      "ĠRel":2866,
      "Ġdown":2867,
      "ĠDis":2868,
      "ĠRepublic":2869,
      "Ġmass":2870,
      "epar":2871,
      "iers":2872,
      "ceed":2873,
      "Ġbecome":2874,
      "Ġproduc":2875,
      "Ġincluded":2876,
      "aign":2877,
      "150":2878,
      "va":2879,
      "orts":2880,
      ";}}":2881,
      "Ġ31":2882,
      "ĠSea":2883,
      "App":2884,
      "Ġcase":2885,
      "div":2886,
      "Ġlevel":2887,
      "Ġimp":2888,
      "illed":2889,
      "citation":2890,
      "Ġsk":2891,
      "Ġspace":2892,
      "yes":2893,
      "law":2894,
      "Ġtheory":2895,
      "zerbai":2896,
      "London":2897,
      "ĠRiver":2898,
      "Ġshould":2899,
      "Ġchurch":2900,
      "ser":2901,
      "aining":2902,
      "lom":2903,
      "Ġsuggest":2904,
      "ĠInstitute":2905,
      "188":2906,
      "ewish":2907,
      "ĠResearch":2908,
      "cis":2909,
      "ux":2910,
      "rey":2911,
      "Ġlocal":2912,
      "IM":2913,
      "Ġinvol":2914,
      "han":2915,
      "Ġcaus":2916,
      "ittle":2917,
      "Ġwrote":2918,
      "Ġeduc":2919,
      "Alexander":2920,
      "Ġinit":2921,
      "ĠInt":2922,
      "ips":2923,
      "Ġsingle":2924,
      "Ġdisc":2925,
      "aken":2926,
      "!}}":2927,
      "puter":2928,
      "ĠBro":2929,
      "Ġdescription":2930,
      "ights":2931,
      "peror":2932,
      "All":2933,
      "Ã¤":2934,
      "}})":2935,
      "Ġlaunch":2936,
      "Ġtotal":2937,
      "data":2938,
      "104":2939,
      "Battle":2940,
      "iforn":2941,
      "Richard":2942,
      "za":2943,
      "Ġdel":2944,
      "film":2945,
      "ishop":2946,
      "ini":2947,
      "Ġsol":2948,
      "inary":2949,
      "Ġpage":2950,
      "lood":2951,
      "Ġchang":2952,
      "action":2953,
      "ify":2954,
      "ĠAtlant":2955,
      "Ġstudy":2956,
      "75":2957,
      "Im":2958,
      "atory":2959,
      "Ġins":2960,
      "Ġway":2961,
      "arc":2962,
      "Ġacid":2963,
      "ĠPark":2964,
      "Ġhttp":2965,
      "ĠOff":2966,
      "|&":2967,
      "Ġfew":2968,
      "Ġdoes":2969,
      "Ġreach":2970,
      "astern":2971,
      "Ġlinks":2972,
      "Europe":2973,
      "Ġheld":2974,
      "Ġview":2975,
      "ademic":2976,
      "scription":2977,
      "OR":2978,
      "west":2979,
      "Inf":2980,
      "Ġevent":2981,
      "Ġru":2982,
      "ividual":2983,
      "number":2984,
      "Ġgroups":2985,
      "var":2986,
      "isch":2987,
      "Ġsong":2988,
      "Art":2989,
      "IN":2990,
      "elect":2991,
      "otic":2992,
      "AAJ":2993,
      "ouis":2994,
      "bia":2995,
      "mann":2996,
      "70":2997,
      "ĠPri":2998,
      "Ġconn":2999,
      "Bel":3000,
      "Ġterrit":3001,
      "ider":3002,
      "230":3003,
      "ranch":3004,
      "ulf":3005,
      "lat":3006,
      "ĠDep":3007,
      "ĠPol":3008,
      "ift":3009,
      "Ġlocation":3010,
      "Paul":3011,
      "ĠIndian":3012,
      "enced":3013,
      "ociated":3014,
      "ĠĠĠĠĠ":3015,
      "ports":3016,
      "Ø§":3017,
      "ita":3018,
      "Ben":3019,
      "width":3020,
      "aught":3021,
      "EC":3022,
      "ĠHistor":3023,
      "Ġeditor":3024,
      "Ġpost":3025,
      "Ġaut":3026,
      "itu":3027,
      "umer":3028,
      "Gu":3029,
      "Peter":3030,
      "ĠSup":3031,
      "Ġbi":3032,
      "osp":3033,
      "German":3034,
      "_s":3035,
      "cast":3036,
      "dd":3037,
      "inese":3038,
      "unn":3039,
      "igital":3040,
      "Ġgreat":3041,
      "oung":3042,
      "Ã§":3043,
      "ective":3044,
      "Ġtele":3045,
      "George":3046,
      "Ġtimes":3047,
      "ifornia":3048,
      "roy":3049,
      "Ġoriginal":3050,
      "AN":3051,
      "Ġbeh":3052,
      "vt":3053,
      ";(":3054,
      "ĠMe":3055,
      "Ġhowever":3056,
      "ĠBooks":3057,
      "Ġresearch":3058,
      "ĠEarth":3059,
      "Ġturn":3060,
      "used":3061,
      "ending":3062,
      "ĠNo":3063,
      "Red":3064,
      "Car":3065,
      "ĠSome":3066,
      "erseus":3067,
      "ĠBen":3068,
      "Ġalg":3069,
      "Russ":3070,
      ";\\":3071,
      "Ġsystems":3072,
      ";)":3073,
      "ands":3074,
      "nia":3075,
      "Ġservice":3076,
      "cer":3077,
      "stant":3078,
      "Phil":3079,
      "ĠWilliam":3080,
      "ects":3081,
      "istance":3082,
      "Ġbuilt":3083,
      "ĠPublishing":3084,
      "rant":3085,
      "self":3086,
      "ĠAward":3087,
      "}}}}":3088,
      "Charles":3089,
      "ĠIslam":3090,
      "jstor":3091,
      "lc":3092,
      "umbers":3093,
      "=[":3094,
      "ĠOne":3095,
      "from":3096,
      "Rep":3097,
      "iol":3098,
      "kn":3099,
      "uke":3100,
      "ĠDo":3101,
      "airs":3102,
      "Ġ187":3103,
      "Ġattempt":3104,
      "Ġothers":3105,
      "Ġsent":3106,
      "yan":3107,
      "Ġchildren":3108,
      "81":3109,
      "alls":3110,
      "Ġworks":3111,
      "amin":3112,
      "ien":3113,
      "ĠGreat":3114,
      "stead":3115,
      "Man":3116,
      "head":3117,
      "Ġtransl":3118,
      "erences":3119,
      "ĠDef":3120,
      "Ġwritten":3121,
      "Ġaircraft":3122,
      "131":3123,
      "Ġclo":3124,
      "comm":3125,
      "ribution":3126,
      "ances":3127,
      "upt":3128,
      "Gen":3129,
      "file":3130,
      "athemat":3131,
      "writer":3132,
      "La":3133,
      "65":3134,
      "bar":3135,
      "bro":3136,
      "pha":3137,
      "ped":3138,
      "ulgaria":3139,
      "Ġpred":3140,
      "ĠAD":3141,
      "vis":3142,
      "Ð»":3143,
      "arts":3144,
      "Ġstrong":3145,
      "Black":3146,
      "EB":3147,
      "vious":3148,
      "Min":3149,
      "main":3150,
      "Port":3151,
      "vey":3152,
      "Ġproble":3153,
      "Ġversion":3154,
      "Ġcarri":3155,
      "ja":3156,
      "Ġgames":3157,
      "ĠTr":3158,
      "add":3159,
      "Ġdev":3160,
      "Ġusually":3161,
      "obel":3162,
      "Ġbox":3163,
      "ĠĠĠĠĠĠĠĠĠĠĠĠĠ":3164,
      "King":3165,
      "Ġmethod":3166,
      "Jos":3167,
      "bre":3168,
      "Cambridge":3169,
      "Ġnorth":3170,
      "ĠIm":3171,
      "ĠGroup":3172,
      "olf":3173,
      "Ġthough":3174,
      "106":3175,
      "English":3176,
      "rated":3177,
      "Ġ188":3178,
      "Ġ:":3179,
      "flagicon":3180,
      "duce":3181,
      "Ġrole":3182,
      "dam":3183,
      "emor":3184,
      "aska":3185,
      "eek":3186,
      "Ġsepar":3187,
      "64":3188,
      "Ġemb":3189,
      "ER":3190,
      "Ġfive":3191,
      "ometimes":3192,
      "Ġareas":3193,
      "Ġord":3194,
      "Ġalbum":3195,
      "ĠWith":3196,
      "rich":3197,
      "via":3198,
      "Ġav":3199,
      "Ġclos":3200,
      "ASA":3201,
      "orph":3202,
      "TS":3203,
      "ube":3204,
      "Ġrecogn":3205,
      "ector":3206,
      "verage":3207,
      "Ġbeg":3208,
      "ĠAssociation":3209,
      "We":3210,
      "_c":3211,
      "83":3212,
      "lan":3213,
      "ĠĠĠĠĠĠĠĠĠĠĠ":3214,
      "84":3215,
      "Ġdescribed":3216,
      "250":3217,
      "ĠSchool":3218,
      "efn":3219,
      "ilms":3220,
      "Ġsee":3221,
      "Ġdi":3222,
      "unar":3223,
      "Ġcame":3224,
      "121":3225,
      "ference":3226,
      "Ġsum":3227,
      "ams":3228,
      "Ġmot":3229,
      "Ġproduced":3230,
      "velopment":3231,
      "Ġobserv":3232,
      "Ġhaving":3233,
      "Ġeff":3234,
      "Ġearl":3235,
      "ges":3236,
      "010":3237,
      "ĪĴ":3238,
      "urity":3239,
      "zen":3240,
      "Ġcurrent":3241,
      "Ġwomen":3242,
      "Ġmonth":3243,
      "Ġreleased":3244,
      "iplom":3245,
      "Ġdied":3246,
      "ecut":3247,
      "Ġanim":3248,
      "blog":3249,
      "Ġmiss":3250,
      "140":3251,
      "Ġcompany":3252,
      "Ġfa":3253,
      "fin":3254,
      "gress":3255,
      "Ġalthough":3256,
      "ynth":3257,
      "chnology":3258,
      "lines":3259,
      "],":3260,
      "Ġ(&":3261,
      "ato":3262,
      "Ġwest":3263,
      "Ġengine":3264,
      "ints":3265,
      "Ġsix":3266,
      "ĠFore":3267,
      "ecess":3268,
      "rial":3269,
      "Ġtype":3270,
      "stitut":3271,
      "\">{{":3272,
      "pop":3273,
      "oto":3274,
      "Ġforces":3275,
      "arter":3276,
      "ises":3277,
      "Ass":3278,
      "ĠCommun":3279,
      "Ġreal":3280,
      "itte":3281,
      "Ġfre":3282,
      "ĠHar":3283,
      "ĠInter":3284,
      "dts":3285,
      "]]),":3286,
      "Ġ978":3287,
      "ftware":3288,
      "iterature":3289,
      "pub":3290,
      "ĠCong":3291,
      "Ġindividual":3292,
      "omic":3293,
      "Ġperform":3294,
      "Journal":3295,
      "Ġz":3296,
      "usc":3297,
      "Ġmaterial":3298,
      "irit":3299,
      "wana":3300,
      "isc":3301,
      "OS":3302,
      "AP":3303,
      "Don":3304,
      "asing":3305,
      "85":3306,
      "Ġposition":3307,
      "nic":3308,
      "polit":3309,
      "Î¿":3310,
      "Ġthird":3311,
      "Ġmeas":3312,
      "Ġ/>":3313,
      "95":3314,
      "Ġsource":3315,
      "ished":3316,
      "Ġpress":3317,
      "Ġdest":3318,
      "IT":3319,
      "Ġaccount":3320,
      "Ġcategory":3321,
      "ĠGeneral":3322,
      "zerbaijan":3323,
      "down":3324,
      "Ġhow":3325,
      "ĠAsia":3326,
      "ghost":3327,
      "61":3328,
      "posed":3329,
      "92":3330,
      "ĠRes":3331,
      "ili":3332,
      "library":3333,
      "Ã¨":3334,
      "uture":3335,
      "uble":3336,
      "eff":3337,
      "ators":3338,
      "Ġnatural":3339,
      "Thomas":3340,
      "Ġeither":3341,
      "Ġtake":3342,
      "BM":3343,
      "ĠTo":3344,
      "Ġwebsite":3345,
      "Ġsinger":3346,
      "BBC":3347,
      "Ġmust":3348,
      "Ġge":3349,
      "Ġ{{!}}":3350,
      "72":3351,
      "Ġwid":3352,
      "ership":3353,
      "group":3354,
      "AAAA":3355,
      "verse":3356,
      "82":3357,
      "Ġchem":3358,
      "Ġpresident":3359,
      "Em":3360,
      "open":3361,
      "ĠAlban":3362,
      "ĠCenter":3363,
      "icago":3364,
      "sa":3365,
      "atives":3366,
      "Ġhon":3367,
      "Ġconc":3368,
      "Ġbusiness":3369,
      "62":3370,
      "cohol":3371,
      "anth":3372,
      "ĠPhil":3373,
      "bu":3374,
      "Ġappear":3375,
      "Ġscient":3376,
      "ring":3377,
      "Ġcirc":3378,
      "allery":3379,
      "life":3380,
      "amine":3381,
      "raham":3382,
      "Ġparty":3383,
      "}}.&":3384,
      "181":3385,
      "vention":3386,
      "Qu":3387,
      "ĠFrom":3388,
      "Ġancient":3389,
      "Ġang":3390,
      "Ġchange":3391,
      "Î½":3392,
      "Ġfig":3393,
      "ghostarchive":3394,
      "Ġgovern":3395,
      "Âł":3396,
      "Ġsw":3397,
      "ĠEl":3398,
      "EN":3399,
      "rp":3400,
      "En":3401,
      "itude":3402,
      "ĠOther":3403,
      "Increase":3404,
      "Ġhold":3405,
      "lement":3406,
      "Ġfurther":3407,
      "ecially":3408,
      "Ġevidence":3409,
      "]]]]":3410,
      "170":3411,
      "hd":3412,
      "IA":3413,
      "ĠHigh":3414,
      "ĠCompany":3415,
      "eu":3416,
      "Ġesp":3417,
      "Ġmarri":3418,
      "set":3419,
      "Ġdr":3420,
      "ĠServ":3421,
      "ecial":3422,
      "ĠReview":3423,
      "93":3424,
      "ĠAlbert":3425,
      "Ġcolspan":3426,
      "oral":3427,
      "eting":3428,
      "resp":3429,
      "otland":3430,
      "anced":3431,
      "ĠHall":3432,
      "Ġep":3433,
      "aps":3434,
      "Ġoppos":3435,
      "national":3436,
      "Ġfather":3437,
      "nder":3438,
      "fred":3439,
      "ĠBos":3440,
      "Ġactor":3441,
      "Ġcaption":3442,
      "Ġcreated":3443,
      "plement":3444,
      "acing":3445,
      "By":3446,
      "otswana":3447,
      "ests":3448,
      "ĠShe":3449,
      "Ġseen":3450,
      "Use":3451,
      "Ġsocial":3452,
      "Ġblack":3453,
      "cs":3454,
      "series":3455,
      "asc":3456,
      "Ġden":3457,
      "ciences":3458,
      "ength":3459,
      "ooth":3460,
      "nasa":3461,
      "eta":3462,
      "151":3463,
      "ultiple":3464,
      "ĠAcademy":3465,
      "Cent":3466,
      "ĠLaw":3467,
      "ees":3468,
      "erm":3469,
      "Ġill":3470,
      "bur":3471,
      "Ġel":3472,
      "change":3473,
      "ĠBerlin":3474,
      "dec":3475,
      "European":3476,
      "Ġgre":3477,
      "reece":3478,
      "Ge":3479,
      "egu":3480,
      "ĠWhen":3481,
      "ki":3482,
      "ĠChem":3483,
      "Ġabs":3484,
      "lad":3485,
      "Ġplan":3486,
      "94":3487,
      "Ġpot":3488,
      "cipitation":3489,
      "nam":3490,
      "|}":3491,
      "iting":3492,
      "ĠPublic":3493,
      "ĠIsland":3494,
      "Ġrather":3495,
      "AD":3496,
      "Ġastron":3497,
      "Ġadmin":3498,
      "pmc":3499,
      "Ġrepl":3500,
      "aker":3501,
      "merc":3502,
      "Ġmanag":3503,
      "ires":3504,
      "ump":3505,
      "Se":3506,
      "Ġreceived":3507,
      "ysics":3508,
      "Ġcover":3509,
      "ada":3510,
      "agon":3511,
      "thing":3512,
      "FL":3513,
      "ĠCatholic":3514,
      "Ġleast":3515,
      "encyclopedia":3516,
      "500":3517,
      "{|":3518,
      "Ġculture":3519,
      "ĠMartin":3520,
      "ades":3521,
      "mons":3522,
      "Ġarchitect":3523,
      "Australian":3524,
      "Ġside":3525,
      "ailable":3526,
      "Ġwon":3527,
      "Ġcontin":3528,
      "ĠDictionary":3529,
      "Ġforms":3530,
      "Ġtre":3531,
      "ĠSec":3532,
      "aval":3533,
      "rade":3534,
      "ĠLibrary":3535,
      "73":3536,
      "game":3537,
      "011":3538,
      "Ġhalf":3539,
      "ounced":3540,
      "Ġ#":3541,
      "Ġrange":3542,
      "reme":3543,
      "ĠRef":3544,
      "!!":3545,
      "113":3546,
      "Mon":3547,
      "ĠCivil":3548,
      "Ġplayed":3549,
      "bg":3550,
      "Ġgood":3551,
      "ĠRussian":3552,
      "ĠCalifornia":3553,
      "Ġinternational":3554,
      "info":3555,
      "71":3556,
      "eh":3557,
      "Ġhum":3558,
      "Do":3559,
      "ĠLife":3560,
      "Ġoccur":3561,
      "63":3562,
      "Ġcapital":3563,
      "ĠStudies":3564,
      "Ġcare":3565,
      "Ġexpress":3566,
      "ez":3567,
      "ois":3568,
      "display":3569,
      "Ġaff":3570,
      "003":3571,
      "bour":3572,
      "uit":3573,
      "Albert":3574,
      "Ġknow":3575,
      "ties":3576,
      "Ġsometimes":3577,
      "Ġfootballer":3578,
      "Ġfar":3579,
      "Ġnever":3580,
      "185":3581,
      "_m":3582,
      "ampions":3583,
      "Ġspecial":3584,
      "ĠAccording":3585,
      "ĠSmith":3586,
      "iment":3587,
      "124":3588,
      "ĠRevolution":3589,
      "Â°":3590,
      "irgin":3591,
      "ette":3592,
      "exas":3593,
      "ĠUK":3594,
      "161":3595,
      "isk":3596,
      "anda":3597,
      "ĠMus":3598,
      "iate":3599,
      "Ġprincip":3600,
      "Ġaddition":3601,
      "Ġcomplet":3602,
      "ĠApple":3603,
      "ĠEv":3604,
      "cean":3605,
      "ĠWestern":3606,
      "assy":3607,
      "Ġleader":3608,
      "Ġeth":3609,
      "ternet":3610,
      "182":3611,
      "Ġcourt":3612,
      "exual":3613,
      "Ġyou":3614,
      "ĠCouncil":3615,
      "ellig":3616,
      "baseball":3617,
      "oice":3618,
      "Ġhost":3619,
      "odes":3620,
      "sfnp":3621,
      "Ð¾Ð":3622,
      "ĠCanada":3623,
      "211":3624,
      "ras":3625,
      "ictor":3626,
      "quently":3627,
      "ivity":3628,
      "Ġuses":3629,
      "icism":3630,
      "ĠStat":3631,
      "foot":3632,
      "Ġsuff":3633,
      "rast":3634,
      "forman":3635,
      "olumbia":3636,
      "Ġpossible":3637,
      "den":3638,
      "ords":3639,
      "74":3640,
      "91":3641,
      "Ġkey":3642,
      "PG":3643,
      "eder":3644,
      "Ġarm":3645,
      "ĠDec":3646,
      "Ġstructure":3647,
      "ĠPresident":3648,
      "inct":3649,
      "ĠScott":3650,
      "ova":3651,
      "Ġdates":3652,
      "gi":3653,
      "ĠFirst":3654,
      "Ġaverage":3655,
      "iller":3656,
      "Par":3657,
      "ao":3658,
      "mir":3659,
      "Ġdeb":3660,
      "Ġnext":3661,
      "Ġacross":3662,
      "frac":3663,
      "Bill":3664,
      "Ġborn":3665,
      "olec":3666,
      "po":3667,
      "alle":3668,
      "enth":3669,
      "icip":3670,
      "cy":3671,
      "Ġfood":3672,
      "Ġimpro":3673,
      "itted":3674,
      "Mark":3675,
      "ĠBar":3676,
      "Ġ====":3677,
      "covered":3678,
      "rish":3679,
      "olk":3680,
      "123":3681,
      "Ġexperi":3682,
      "ĠSoviet":3683,
      "business":3684,
      "ski":3685,
      "iteration":3686,
      "ĠSan":3687,
      "ĠEncyclopedia":3688,
      "uffalo":3689,
      "creen":3690,
      ":&":3691,
      "asia":3692,
      "oclc":3693,
      "exp":3694,
      "Ġprecipitation":3695,
      "Ġindic":3696,
      "ĠTrans":3697,
      "ansas":3698,
      "zo":3699,
      "Ġhimself":3700,
      "Ġwidth":3701,
      "Ste":3702,
      "mit":3703,
      "imately":3704,
      "Ġmovement":3705,
      "hus":3706,
      "Ġser":3707,
      "lades":3708,
      "ĠLabor":3709,
      "ebra":3710,
      "Ġaccept":3711,
      "Ġprevious":3712,
      "ĠBarb":3713,
      "emit":3714,
      "030":3715,
      "ny":3716,
      "ply":3717,
      "etri":3718,
      "ĠPortug":3719,
      "Ġespecially":3720,
      "get":3721,
      "osph":3722,
      "Ġvar":3723,
      "Ã¼r":3724,
      "]&":3725,
      "lected":3726,
      "ĠGe":3727,
      "Ġmaking":3728,
      "ko":3729,
      "ellow":3730,
      "Ġarmy":3731,
      "Arab":3732,
      "Ġcontinued":3733,
      "zant":3734,
      "Ġrev":3735,
      "ounds":3736,
      "like":3737,
      "Ġhouse":3738,
      "oston":3739,
      "eech":3740,
      "ynast":3741,
      "iverse":3742,
      "Sw":3743,
      "ete":3744,
      "ĠPat":3745,
      "fic":3746,
      "301":3747,
      "Ġtemper":3748,
      "iation":3749,
      "econ":3750,
      "Ġpercent":3751,
      "ependence":3752,
      "]]}}&":3753,
      "empor":3754,
      "141":3755,
      "Ġpers":3756,
      "Ġregard":3757,
      "ixed":3758,
      "arbon":3759,
      "Ġbattle":3760,
      "ĠClass":3761,
      "Ġbase":3762,
      "Med":3763,
      "Ġreported":3764,
      "clus":3765,
      "Ġtro":3766,
      "Ġcomputer":3767,
      "vate":3768,
      "urt":3769,
      "ĠÎ":3770,
      "117":3771,
      "Ġgenerally":3772,
      "rim":3773,
      "Ðº":3774,
      "Ġscope":3775,
      "obox":3776,
      "Ġelements":3777,
      "Ġnumbers":3778,
      "Ġfull":3779,
      "184":3780,
      "Ġthought":3781,
      "Ġupon":3782,
      "310":3783,
      "Pal":3784,
      "Ġrelated":3785,
      "Pres":3786,
      "berde":3787,
      "uthority":3788,
      "DE":3789,
      "uis":3790,
      "aso":3791,
      "thegu":3792,
      "Ġabove":3793,
      "ocument":3794,
      "ĠOrgan":3795,
      "theguardian":3796,
      "bell":3797,
      "ĠEconom":3798,
      "ĠLa":3799,
      "ĠBritain":3800,
      "North":3801,
      "ĠTurk":3802,
      "ographic":3803,
      "country":3804,
      "ĠLatin":3805,
      "French":3806,
      "Ġtrain":3807,
      "Ġfinal":3808,
      "Ġcampaign":3809,
      "Ġlik":3810,
      "sterdam":3811,
      "arily":3812,
      "ament":3813,
      "ieval":3814,
      "abb":3815,
      "irt":3816,
      "OL":3817,
      "mode":3818,
      "ĠPers":3819,
      "ĠAfghanistan":3820,
      "ÉĻ":3821,
      "Ġstory":3822,
      "Ġtw":3823,
      "ulated":3824,
      "Ġdefe":3825,
      "ĠSeries":3826,
      "019":3827,
      "Ġox":3828,
      "Ġpaint":3829,
      "Ġstar":3830,
      "134":3831,
      "Ġjo":3832,
      "dy":3833,
      "itage":3834,
      "Ġdeter":3835,
      "Ġnovel":3836,
      "based":3837,
      "Ġaltern":3838,
      "Ġbest":3839,
      "Ġeffects":3840,
      ",{{":3841,
      "Per":3842,
      "igen":3843,
      "olicy":3844,
      "more":3845,
      "BS":3846,
      "eace":3847,
      "ls":3848,
      "ira":3849,
      "ester":3850,
      "subscription":3851,
      "science":3852,
      "203":3853,
      "152":3854,
      "Ġbooks":3855,
      "Ġmeans":3856,
      "ĠCollege":3857,
      "Ġavailable":3858,
      "iy":3859,
      "vauthors":3860,
      "Ġtradition":3861,
      "Ġinvest":3862,
      "pped":3863,
      "Dec":3864,
      "black":3865,
      "ĠCongress":3866,
      "Ġoffer":3867,
      "estival":3868,
      "Ġdead":3869,
      "aves":3870,
      "Ġaccording":3871,
      "elebr":3872,
      "Ġcrew":3873,
      "wikitable":3874,
      "Ġterms":3875,
      "Ġvalue":3876,
      "Christian":3877,
      "ader":3878,
      "Her":3879,
      "cn":3880,
      "UN":3881,
      "pre":3882,
      "Ġdri":3883,
      "ĠCourt":3884,
      "Ġmission":3885,
      "ĠDepartment":3886,
      "reference":3887,
      "Ġflight":3888,
      "PP":3889,
      "Ġfight":3890,
      "ĠIts":3891,
      "erald":3892,
      "Ġenergy":3893,
      "vin":3894,
      "Ġred":3895,
      "Ġarticle":3896,
      "ĠPost":3897,
      "umin":3898,
      "ĠBuddh":3899,
      "Nor":3900,
      "iff":3901,
      "):":3902,
      "reet":3903,
      "elling":3904,
      "Ne":3905,
      "olt":3906,
      "Ġvol":3907,
      "Ġcar":3908,
      "Ġ50":3909,
      "anded":3910,
      "riz":3911,
      "Ġcertain":3912,
      "Ġtour":3913,
      "Ġforce":3914,
      "Sim":3915,
      "pret":3916,
      "ida":3917,
      "ÏĤ":3918,
      "ĠClin":3919,
      "Ġcomplex":3920,
      "Ġformed":3921,
      "berdeen":3922,
      "onso":3923,
      "ĠReport":3924,
      "labama":3925,
      "171":3926,
      "gs":3927,
      "uries":3928,
      "ilities":3929,
      "ĠMusic":3930,
      "Ġgod":3931,
      "Ġdirector":3932,
      "ĠSer":3933,
      "Ġconcept":3934,
      "Short":3935,
      "Ġbre":3936,
      "rac":3937,
      "ĠCan":3938,
      "ĠDavid":3939,
      "icles":3940,
      "Ġtable":3941,
      "ĠChina":3942,
      "Ġprofess":3943,
      "220":3944,
      "cd":3945,
      "ĠWashington":3946,
      "reedom":3947,
      "Ġpur":3948,
      "cvt":3949,
      "ning":3950,
      "ĠAM":3951,
      "uan":3952,
      "114":3953,
      "ĠHol":3954,
      "ĠItalian":3955,
      "jo":3956,
      "load":3957,
      "chie":3958,
      "ĠDuring":3959,
      "Ġcolon":3960,
      "omer":3961,
      "Ä«":3962,
      "Ġmember":3963,
      "Ġparts":3964,
      "ken":3965,
      "Ġflow":3966,
      "ackson":3967,
      "Ġreligious":3968,
      "uns":3969,
      "anglades":3970,
      "First":3971,
      "ĠOxford":3972,
      "Ġassociated":3973,
      "sky":3974,
      "Ġstandard":3975,
      "Ġsite":3976,
      "embly":3977,
      "lav":3978,
      "opper":3979,
      "bf":3980,
      "mond":3981,
      "online":3982,
      "Ġnames":3983,
      "ĠMac":3984,
      "aph":3985,
      "ĠDevelopment":3986,
      "aa":3987,
      "ĠHealth":3988,
      "Cont":3989,
      "ura":3990,
      "ĠInc":3991,
      "eless":3992,
      "ĠCanadian":3993,
      "Ġinstead":3994,
      "ĠCons":3995,
      "007":3996,
      "isl":3997,
      "004":3998,
      "hab":3999,
      "ĠAnn":4000,
      "Ġsources":4001,
      "Ġrecent":4002,
      "Ġproject":4003,
      "Cal":4004,
      "Ġtown":4005,
      "132":4006,
      "Ġthus":4007,
      "azon":4008,
      "ĠAmericans":4009,
      "Ġlocated":4010,
      "Ġeconomic":4011,
      "Ġscience":4012,
      "Ġtelevision":4013,
      "Bro":4014,
      "Ġfind":4015,
      "ety":4016,
      "Ġteach":4017,
      "ils":4018,
      "122":4019,
      "east":4020,
      "Ġfounded":4021,
      "ĠRoyal":4022,
      "183":4023,
      "260":4024,
      "Lang":4025,
      "rn":4026,
      "Ġtaken":4027,
      "Ġmeaning":4028,
      "edy":4029,
      "Ġsection":4030,
      "ried":4031,
      "Ġcivil":4032,
      "etro":4033,
      "Ġhigher":4034,
      "report":4035,
      "ĠDemocr":4036,
      "ibi":4037,
      "Ġinfluence":4038,
      "histor":4039,
      "ĠMinister":4040,
      "ĠArabic":4041,
      "known":4042,
      "annot":4043,
      "urkina":4044,
      "gium":4045,
      "ĠBas":4046,
      "amples":4047,
      "Ġhealth":4048,
      "Ġ183":4049,
      "Ġpoet":4050,
      "iro":4051,
      "isation":4052,
      "rs":4053,
      "ĠFound":4054,
      "ounter":4055,
      "240":4056,
      "Ġconsist":4057,
      "Pl":4058,
      "Ġpol":4059,
      "ĠAC":4060,
      "high":4061,
      "iat":4062,
      "thur":4063,
      "Ġbuilding":4064,
      "lywood":4065,
      "116":4066,
      "Ġthroughout":4067,
      "Ġelectron":4068,
      "Ġedition":4069,
      "bin":4070,
      "rele":4071,
      "gether":4072,
      "Ġcentral":4073,
      "box":4074,
      "Ġtogether":4075,
      "Ġalt":4076,
      "Ġfollowed":4077,
      "Int":4078,
      "eved":4079,
      "ension":4080,
      "Ġadopt":4081,
      "none":4082,
      "Ġinformation":4083,
      "Harv":4084,
      "400":4085,
      "Ġband":4086,
      "ogen":4087,
      "]]'''":4088,
      "ttoman":4089,
      "atest":4090,
      "iga":4091,
      "ĠPop":4092,
      "ĠNor":4093,
      "ication":4094,
      "osc":4095,
      "How":4096,
      "_b":4097,
      "tv":4098,
      "Ġhard":4099,
      "Ġapprox":4100,
      "Elect":4101,
      "Ġnetwork":4102,
      "Ġlet":4103,
      "Ġi":4104,
      "hu":4105,
      "ĠModern":4106,
      "241":4107,
      "Ġcoast":4108,
      "lete":4109,
      "ows":4110,
      "Ä±":4111,
      "Ġcities":4112,
      "Ġneg":4113,
      "ĠBah":4114,
      "ibility":4115,
      "Ġground":4116,
      "Ġarg":4117,
      "ennis":4118,
      "ĠForce":4119,
      "_name":4120,
      "rid":4121,
      "ulti":4122,
      "Ġintroduced":4123,
      "ively":4124,
      "yah":4125,
      "Ġisland":4126,
      "Ġrelative":4127,
      "Ġemploy":4128,
      "zeg":4129,
      "igion":4130,
      "loads":4131,
      "script":4132,
      "ption":4133,
      "rese":4134,
      "Ġindustry":4135,
      "Book":4136,
      "kin":4137,
      "onn":4138,
      "ooper":4139,
      "Ġprob":4140,
      "Ġphilosoph":4141,
      "ĠAngel":4142,
      "see":4143,
      "house":4144,
      "emory":4145,
      "Ġrights":4146,
      "bury":4147,
      "Ã¦":4148,
      "á¹":4149,
      "ĠMost":4150,
      "tra":4151,
      "iana":4152,
      "Ġbecom":4153,
      "minor":4154,
      "Ġdefin":4155,
      "Ġencyclopedia":4156,
      "This":4157,
      "million":4158,
      "covery":4159,
      "mercial":4160,
      "shtml":4161,
      "water":4162,
      "Ġfire":4163,
      "thodox":4164,
      "Ġmother":4165,
      "Ġitself":4166,
      "Te":4167,
      "ĠBest":4168,
      "Ġsurface":4169,
      "circ":4170,
      "ĠWall":4171,
      "Ġfund":4172,
      "utes":4173,
      "ĠNations":4174,
      "Sam":4175,
      "ĠPaul":4176,
      "ynam":4177,
      "Ġlower":4178,
      "312":4179,
      "ala":4180,
      "Ġrate":4181,
      "Ġtrade":4182,
      "ued":4183,
      "ibl":4184,
      "ults":4185,
      "ĠArmenia":4186,
      "ËĪ":4187,
      "sing":4188,
      "ÙĦ":4189,
      "Ġcit":4190,
      "Ġstri":4191,
      "formance":4192,
      "No":4193,
      "Pat":4194,
      "hold":4195,
      "Ġbaseball":4196,
      "standing":4197,
      "Ġtransport":4198,
      "ĠAwards":4199,
      "istr":4200,
      "178":4201,
      "Smith":4202,
      "osaur":4203,
      "ĠElect":4204,
      "NA":4205,
      "axim":4206,
      "rang":4207,
      "ĠâĢĶ":4208,
      "TV":4209,
      "asket":4210,
      "Jul":4211,
      "cm":4212,
      "Ġsize":4213,
      "Ġestim":4214,
      "iest":4215,
      "party":4216,
      "Ġmount":4217,
      "ĠSur":4218,
      "ĠWork":4219,
      "achine":4220,
      "lications":4221,
      "Ġrelease":4222,
      "Henry":4223,
      "ĠSciences":4224,
      "grc":4225,
      "Ġhelp":4226,
      "avis":4227,
      "Ġalmost":4228,
      "Mac":4229,
      "Ġvict":4230,
      "Ġdeg":4231,
      "ĠParis":4232,
      "311":4233,
      "oid":4234,
      "Apple":4235,
      "Ġtax":4236,
      "Ġ40":4237,
      "ĠRussia":4238,
      "ĠJapanese":4239,
      "apital":4240,
      "PL":4241,
      "Ġsla":4242,
      "ĠRome":4243,
      ";#":4244,
      "illing":4245,
      "kins":4246,
      "ĠLeg":4247,
      "Ġplayers":4248,
      "asion":4249,
      "125":4250,
      "ĠĠĠĠĠĠĠĠĠĠĠĠĠĠ":4251,
      "angladesh":4252,
      "Ġcompan":4253,
      "outledge":4254,
      "ussels":4255,
      "ctor":4256,
      "ĠMoon":4257,
      "Ġ184":4258,
      "Ġ185":4259,
      "Ġsurv":4260,
      "Ġfilms":4261,
      "Ġvideo":4262,
      "mm":4263,
      "Ġfri":4264,
      "Ġmid":4265,
      "Ġacademic":4266,
      "Ġmap":4267,
      "Bar":4268,
      "Trans":4269,
      "media":4270,
      "anufact":4271,
      "ĠIsrael":4272,
      "Ġwords":4273,
      "bill":4274,
      "Î¹":4275,
      "Ġfav":4276,
      "/~":4277,
      "iding":4278,
      "Ġentire":4279,
      "ĠAS":4280,
      "ems":4281,
      "uclear":4282,
      "Ġdesigned":4283,
      "Ġlength":4284,
      "Ġreview":4285,
      "Ancient":4286,
      "ynasty":4287,
      "ĠÂ":4288,
      "lit":4289,
      "rief":4290,
      "Ġelement":4291,
      "atre":4292,
      "Ġincludes":4293,
      "ĠShah":4294,
      "Ġcommunity":4295,
      "cf":4296,
      "iques":4297,
      "ON":4298,
      "hel":4299,
      "ni":4300,
      "oron":4301,
      "ologist":4302,
      "ĠVal":4303,
      "DI":4304,
      "ĠDutch":4305,
      "phab":4306,
      "acts":4307,
      "ĠIslands":4308,
      "Ġanalysis":4309,
      "212":4310,
      "Histor":4311,
      "115":4312,
      "ulations":4313,
      "]]''.":4314,
      ";]":4315,
      "ÏĦ":4316,
      "ado":4317,
      "ĠFilm":4318,
      "udio":4319,
      "Ġcenter":4320,
      "irds":4321,
      "mac":4322,
      "ror":4323,
      "roph":4324,
      "ĠCa":4325,
      "Ġgener":4326,
      "Ġapproach":4327,
      "020":4328,
      "Co":4329,
      "even":4330,
      "rum":4331,
      "song":4332,
      "emporary":4333,
      "ications":4334,
      "oma":4335,
      "Ġfac":4336,
      "Ġdial":4337,
      "oir":4338,
      "Ġmaint":4339,
      "Ġplant":4340,
      "Ġbroad":4341,
      "ĠItaly":4342,
      "ĠPrize":4343,
      "itar":4344,
      "lade":4345,
      "archives":4346,
      "etics":4347,
      "Ġfoc":4348,
      "yer":4349,
      "football":4350,
      "hr":4351,
      "Ġobject":4352,
      "Ġvan":4353,
      "Atlant":4354,
      "sports":4355,
      "after":4356,
      "ignal":4357,
      "Ġlost":4358,
      "204":4359,
      "iley":4360,
      "133":4361,
      "ĠMass":4362,
      "Ġwhose":4363,
      "riculture":4364,
      "Ġinteg":4365,
      "Ġpref":4366,
      "ustin":4367,
      "registration":4368,
      "Ã«":4369,
      "GB":4370,
      "iance":4371,
      "146":4372,
      "Ġkilled":4373,
      "Ġveh":4374,
      "sort":4375,
      "ĠDiv":4376,
      "_of":4377,
      "city":4378,
      "ĠBay":4379,
      "rav":4380,
      "Ġsuccessful":4381,
      "CD":4382,
      "years":4383,
      "Ġanth":4384,
      "aptism":4385,
      "118":4386,
      "Ġactress":4387,
      "Ġincreased":4388,
      "blockquote":4389,
      "research":4390,
      "Ġfeatures":4391,
      "elligence":4392,
      "arrow":4393,
      "Ġclub":4394,
      ");":4395,
      "zh":4396,
      "Ġdet":4397,
      "ĠBelarus":4398,
      "Bi":4399,
      "Reflist":4400,
      "ged":4401,
      "nov":4402,
      "Ġwhite":4403,
      "ĠChinese":4404,
      "Ġreferred":4405,
      "Authority":4406,
      "bot":4407,
      "onia":4408,
      "atab":4409,
      "Ġonce":4410,
      "ĠTer":4411,
      "Ġtraditional":4412,
      "JPG":4413,
      "plan":4414,
      "Ġrule":4415,
      "Gold":4416,
      "Ġinstr":4417,
      "Ġpast":4418,
      "There":4419,
      "oke":4420,
      "unicip":4421,
      "ĠGreece":4422,
      "Ġvert":4423,
      "Tom":4424,
      "Ġfeature":4425,
      "_date":4426,
      "}};":4427,
      "162":4428,
      "ributed":4429,
      "rie":4430,
      "006":4431,
      "Ġeducation":4432,
      "bes":4433,
      "cr":4434,
      "ville":4435,
      "Ġviol":4436,
      "Ġmechan":4437,
      "ĠBuddha":4438,
      "Ġ*":4439,
      "andid":4440,
      "Ġasp":4441,
      "231":4442,
      "lexandria":4443,
      "Ġgrowth":4444,
      "Ġexcept":4445,
      "205":4446,
      "ulpt":4447,
      "ender":4448,
      "Ġmarket":4449,
      "012":4450,
      "mission":4451,
      "ells":4452,
      "Ġtreatment":4453,
      "ourse":4454,
      "280":4455,
      "ĠSpanish":4456,
      "EE":4457,
      "how":4458,
      "arhus":4459,
      "eda":4460,
      "159":4461,
      "Ġproducer":4462,
      "chor":4463,
      "Ġscreen":4464,
      "ĠJames":4465,
      "Ġspecific":4466,
      "pin":4467,
      "sites":4468,
      "Ġben":4469,
      "ati":4470,
      "ĠSte":4471,
      "ultan":4472,
      "ephen":4473,
      "ST":4474,
      "251":4475,
      "Frank":4476,
      "lymp":4477,
      "rait":4478,
      "009":4479,
      "UK":4480,
      "Ġachie":4481,
      "Ġgave":4482,
      "005":4483,
      "ĠDes":4484,
      "Ġparticularly":4485,
      "quest":4486,
      "Ġvia":4487,
      "efore":4488,
      "amily":4489,
      "akh":4490,
      "Ġevents":4491,
      "ĠCounty":4492,
      "Infobox":4493,
      "ĠPolit":4494,
      "Ġstated":4495,
      "ĠFrank":4496,
      "/?":4497,
      "onse":4498,
      "start":4499,
      "aylor":4500,
      "270":4501,
      "ĠProt":4502,
      "alter":4503,
      "anta":4504,
      "Ġcross":4505,
      "ĠCup":4506,
      "ĠDist":4507,
      "221":4508,
      "etherlands":4509,
      "Ġlack":4510,
      "enburg":4511,
      "ĠAsh":4512,
      "Ġinterest":4513,
      "Rev":4514,
      "Ġremained":4515,
      "Ġleading":4516,
      "hy":4517,
      "ĠVol":4518,
      "179":4519,
      "Ã³n":4520,
      "Jan":4521,
      "roduction":4522,
      "image":4523,
      "britannica":4524,
      "Ġpain":4525,
      "ĠSim":4526,
      "040":4527,
      "ault":4528,
      "ĠMore":4529,
      "ancial":4530,
      "ertainment":4531,
      "UL":4532,
      "ycl":4533,
      "ections":4534,
      "beg":4535,
      "ĠAzerbaijan":4536,
      "ĠMark":4537,
      "loss":4538,
      "unei":4539,
      "Ġrespons":4540,
      "itzer":4541,
      "perial":4542,
      "Ġrock":4543,
      "129":4544,
      "zegov":4545,
      "|(":4546,
      "ella":4547,
      "ĠJewish":4548,
      "indu":4549,
      "142":4550,
      "lem":4551,
      "Ġconduct":4552,
      "à¤":4553,
      "ora":4554,
      "Ġcost":4555,
      "osis":4556,
      "actions":4557,
      "wp":4558,
      "050":4559,
      "021":4560,
      "After":4561,
      "DF":4562,
      "Ġallowed":4563,
      "ilver":4564,
      "175":4565,
      "ĠConf":4566,
      "commun":4567,
      "Ġlay":4568,
      "Spr":4569,
      "Ġdaught":4570,
      "Ġconcern":4571,
      "CN":4572,
      "def":4573,
      "Ġsymbol":4574,
      "Me":4575,
      "Ġbar":4576,
      "031":4577,
      "emp":4578,
      "ficult":4579,
      "Greek":4580,
      "esus":4581,
      "Ġtarg":4582,
      "Ġcelebr":4583,
      "ctions":4584,
      "ycle":4585,
      "San":4586,
      "Ġbur":4587,
      "oles":4588,
      "ĠBron":4589,
      "eline":4590,
      "ĠPre":4591,
      "aniel":4592,
      "zegovina":4593,
      "{\\":4594,
      "stan":4595,
      "ema":4596,
      "Ġdise":4597,
      "Ġmonths":4598,
      "Ġmight":4599,
      "ĠEarly":4600,
      "position":4601,
      "mediate":4602,
      "ervation":4603,
      "legraph":4604,
      "elves":4605,
      "ĠLin":4606,
      "Ġsouthern":4607,
      "Ġtravel":4608,
      "Ital":4609,
      "ittee":4610,
      "wa":4611,
      "Ġther":4612,
      "Ġsubject":4613,
      "instein":4614,
      "ĠBur":4615,
      "Ġservices":4616,
      "III":4617,
      ".}}":4618,
      "acc":4619,
      "aux":4620,
      "coln":4621,
      "ĠGuardian":4622,
      "Ġbelieved":4623,
      "Sup":4624,
      "Ġcur":4625,
      "ĠBank":4626,
      "Ġannounced":4627,
      "tu":4628,
      "Ġmedia":4629,
      ".}}&":4630,
      "Ġdomin":4631,
      "Ġcompet":4632,
      "Ġfem":4633,
      "Ġincrease":4634,
      "ĠAff":4635,
      "Green":4636,
      "pan":4637,
      "Royal":4638,
      "ero":4639,
      "found":4640,
      "207":4641,
      "Ġmy":4642,
      "Ann":4643,
      "Ġoffice":4644,
      "pat":4645,
      "pri":4646,
      "ĠWhile":4647,
      "Ġstudies":4648,
      "band":4649,
      "Ġdom":4650,
      "ĠJews":4651,
      "177":4652,
      "Ġterritory":4653,
      "ED":4654,
      "gallery":4655,
      "ĠIV":4656,
      "Ġscript":4657,
      "Ġprimary":4658,
      "Ġclose":4659,
      "*''":4660,
      "Ġsay":4661,
      "Ġphot":4662,
      "Ġess":4663,
      "Ġbatt":4664,
      "asketball":4665,
      "his":4666,
      "uses":4667,
      "ĠSal":4668,
      "Ġanti":4669,
      "american":4670,
      "Tr":4671,
      "lass":4672,
      "cell":4673,
      "ĠBell":4674,
      "172":4675,
      "olars":4676,
      "ĠLanguage":4677,
      "ĠSpace":4678,
      "iews":4679,
      "rea":4680,
      "ĠSee":4681,
      "respond":4682,
      "ĠLouis":4683,
      "Andrew":4684,
      "ĠCamp":4685,
      "Ġvon":4686,
      "rence":4687,
      "Ġremains":4688,
      "119":4689,
      "blue":4690,
      "Ġnature":4691,
      "ĠWil":4692,
      "Ġoil":4693,
      "Ġserved":4694,
      "Ġoccup":4695,
      "147":4696,
      "Armen":4697,
      "stone":4698,
      "rice":4699,
      "Ġindependent":4700,
      "Ġquest":4701,
      "vince":4702,
      "lict":4703,
      "lah":4704,
      "ĠNe":4705,
      "252":4706,
      "vironmental":4707,
      "Ġball":4708,
      "Ġdrug":4709,
      "Ġlikely":4710,
      "References":4711,
      "Mal":4712,
      "á¼":4713,
      "aling":4714,
      "Ġaway":4715,
      "ĠOf":4716,
      "Ġdifficult":4717,
      "ĠCentral":4718,
      "Ġcommand":4719,
      "etrieved":4720,
      "pid":4721,
      "Ġresults":4722,
      "Ġrelationship":4723,
      "transliteration":4724,
      "amm":4725,
      "ĠScotland":4726,
      "Encyclopedia":4727,
      "âĢĻ":4728,
      "ĠJohnson":4729,
      "Ġten":4730,
      "ĠPart":4731,
      "302":4732,
      "Ġimm":4733,
      "Ġrequired":4734,
      "lying":4735,
      "Ġreligion":4736,
      "Air":4737,
      "kh":4738,
      "Ġeast":4739,
      "Ġtypically":4740,
      "ET":4741,
      "ores":4742,
      "Ġsun":4743,
      "afety":4744,
      "ĠTime":4745,
      "ĠRed":4746,
      "ĠYear":4747,
      "Ġdiscuss":4748,
      "rine":4749,
      "oted":4750,
      "Ġspeak":4751,
      "ĠAlaska":4752,
      "Ġsubse":4753,
      "rah":4754,
      "stream":4755,
      "ĠAh":4756,
      "igned":4757,
      "Ġorbit":4758,
      "di":4759,
      "Ġfront":4760,
      "istot":4761,
      "Ġable":4762,
      "rod":4763,
      "acters":4764,
      "eep":4765,
      "155":4766,
      "143":4767,
      "awa":4768,
      "anal":4769,
      "206":4770,
      "Ġwent":4771,
      "Ġamount":4772,
      "ĠService":4773,
      "iner":4774,
      "ĠRetrieved":4775,
      "anned":4776,
      "ĠGovernment":4777,
      "ĠWhite":4778,
      "Ġhistorical":4779,
      "Ġeconomy":4780,
      "_n":4781,
      "ĠAlthough":4782,
      "enna":4783,
      "poration":4784,
      "Ã£":4785,
      "obile":4786,
      "zantine":4787,
      "Ġcases":4788,
      "ĠRad":4789,
      "Inter":4790,
      "Ġcoach":4791,
      "Ġsal":4792,
      "Ġsaw":4793,
      "ĠCambridge":4794,
      "Ġstre":4795,
      "uther":4796,
      "labor":4797,
      "PC":4798,
      "car":4799,
      "rease":4800,
      "wide":4801,
      "icient":4802,
      "opy":4803,
      "080":4804,
      "Ġwriter":4805,
      "Ġprovided":4806,
      "rect":4807,
      "Ġtrib":4808,
      "Ġsort":4809,
      "apol":4810,
      "ysical":4811,
      "ĠFin":4812,
      "ĠArk":4813,
      "Ġforeign":4814,
      "lar":4815,
      "Ġfish":4816,
      "Ġmention":4817,
      "ĠIran":4818,
      "ulgarian":4819,
      "Ġeventually":4820,
      "ĠRo":4821,
      "Ġ180":4822,
      "ĠAnth":4823,
      "people":4824,
      "wAAQBAJ":4825,
      "}&":4826,
      "urban":4827,
      "Ġliving":4828,
      "ready":4829,
      "rat":4830,
      "wan":4831,
      "ĠAbb":4832,
      "Ġnorthern":4833,
      "ĠBulgaria":4834,
      "shire":4835,
      "Ġregions":4836,
      "ga":4837,
      "ĠAj":4838,
      "uge":4839,
      "views":4840,
      "phabet":4841,
      "olid":4842,
      "acific":4843,
      "lues":4844,
      "ĠMedicine":4845,
      "Ġtypes":4846,
      "Ġconcent":4847,
      "aptist":4848,
      "Ġlarger":4849,
      "Ġcommonly":4850,
      "record":4851,
      "ados":4852,
      "Ġstarted":4853,
      "Ġver":4854,
      "News":4855,
      "ici":4856,
      "''.&":4857,
      "ĠGeorge":4858,
      "ĠJos":4859,
      "oa":4860,
      "Ath":4861,
      "Martin":4862,
      "usp":4863,
      "Ġmanufact":4864,
      "Ġadapt":4865,
      "Ġadded":4866,
      "Ġax":4867,
      "144":4868,
      "Ġbackground":4869,
      "esh":4870,
      "ĠBritannica":4871,
      "rupt":4872,
      "inent":4873,
      "ously":4874,
      "NASA":4875,
      "Tim":4876,
      "alem":4877,
      "isions":4878,
      "ĠBut":4879,
      "156":4880,
      "261":4881,
      "lean":4882,
      "ogue":4883,
      "eared":4884,
      "Ġarri":4885,
      "ducation":4886,
      "Ġera":4887,
      "ĠSpain":4888,
      "ampionship":4889,
      "uu":4890,
      "Ġunit":4891,
      "ĠCommission":4892,
      "ĠBrown":4893,
      "Ġoutside":4894,
      "ĠGuide":4895,
      "show":4896,
      "Ġappoint":4897,
      "Ġsoftware":4898,
      "ĠFrancis":4899,
      "Joseph":4900,
      "CS":4901,
      "bed":4902,
      "126":4903,
      "Ġsea":4904,
      "ĠTest":4905,
      "ocal":4906,
      "ĠBosnia":4907,
      "times":4908,
      "ols":4909,
      "ĠLand":4910,
      "izing":4911,
      "nowrap":4912,
      "ĠAngeles":4913,
      "Wik":4914,
      "halt":4915,
      "quare":4916,
      "Ġgas":4917,
      "Brazil":4918,
      "reement":4919,
      "Ġlines":4920,
      "Ġprovide":4921,
      "ecutive":4922,
      "Ġaction":4923,
      "070":4924,
      "plor":4925,
      "Ġnumer":4926,
      "281":4927,
      "Ev":4928,
      "MS":4929,
      "Ġwidely":4930,
      "Ġletter":4931,
      "AF":4932,
      "041":4933,
      "langx":4934,
      "umm":4935,
      "ueen":4936,
      "gent":4937,
      "]]).":4938,
      "Ġreturned":4939,
      "Bah":4940,
      "208":4941,
      "inds":4942,
      "Ġseven":4943,
      "Ġparticip":4944,
      "Ġproducts":4945,
      "eer":4946,
      "onym":4947,
      "alus":4948,
      "Ġfuture":4949,
      "127":4950,
      "081":4951,
      "Ġincreasing":4952,
      "Ġconditions":4953,
      "521":4954,
      "Ïģ":4955,
      "Ġfall":4956,
      "Ġfoot":4957,
      "Ġnorm":4958,
      "jamin":4959,
      "reland":4960,
      "igration":4961,
      "ĠNot":4962,
      "War":4963,
      "uese":4964,
      "ĠAge":4965,
      "ĠOrthodox":4966,
      "Ġremov":4967,
      "Ġmoved":4968,
      "ĠBaseball":4969,
      "_d":4970,
      "hood":4971,
      "Ñĥ":4972,
      "Ġaffect":4973,
      "Ġlonger":4974,
      "publications":4975,
      "Ġself":4976,
      "Ġhydro":4977,
      "laide":4978,
      "ĠIf":4979,
      "odies":4980,
      "ĠHistorical":4981,
      "Ġlittle":4982,
      ".)":4983,
      "Pop":4984,
      "cb":4985,
      "Reg":4986,
      "ĠAlt":4987,
      "ĠMiss":4988,
      "isms":4989,
      "igation":4990,
      "ements":4991,
      "ĠHow":4992,
      "Aut":4993,
      "ansion":4994,
      "Ġbrought":4995,
      "External":4996,
      "Ġprivate":4997,
      "Ġput":4998,
      "ĠBig":4999,
      "ortion":5000,
      "153":5001,
      "ensity":5002,
      "ĠHuman":5003,
      "Ġlearn":5004,
      "ened":5005,
      "ĠOld":5006,
      "Ġcome":5007,
      "128":5008,
      "145":5009,
      "Islam":5010,
      "atur":5011,
      "eters":5012,
      "rave":5013,
      "Ġstruct":5014,
      "Ġpractice":5015,
      "census":5016,
      "cgi":5017,
      "008":5018,
      "ordin":5019,
      "Ġrul":5020,
      "Ġwriting":5021,
      "ĠHerzegovina":5022,
      "ĠMany":5023,
      "Ġstation":5024,
      "Ġ!!":5025,
      "ecraft":5026,
      "lied":5027,
      "IV":5028,
      "hard":5029,
      "Ġhom":5030,
      "apple":5031,
      "290":5032,
      "Bo":5033,
      "Mor":5034,
      "big":5035,
      "bul":5036,
      "Ġchanges":5037,
      "Pol":5038,
      "Ġcause":5039,
      "agan":5040,
      "Ġrail":5041,
      "ĠâĢ":5042,
      "ho":5043,
      "athan":5044,
      "Ġacqu":5045,
      "Ġcompar":5046,
      "Ġtowards":5047,
      "emi":5048,
      "Ġhighest":5049,
      "muda":5050,
      "rend":5051,
      "Ġrep":5052,
      "under":5053,
      "Ġ182":5054,
      "anning":5055,
      "size":5056,
      "ila":5057,
      "Ġreason":5058,
      "ĠStar":5059,
      "overnor":5060,
      "Ġrank":5061,
      "Old":5062,
      "Ġcall":5063,
      "ĠAlabama":5064,
      "ĠNavy":5065,
      "176":5066,
      "Ġconsider":5067,
      "Ġriver":5068,
      "Ma":5069,
      "iger":5070,
      "ĠTV":5071,
      "akistan":5072,
      "305":5073,
      "Ġinterpret":5074,
      "Rel":5075,
      "Ġour":5076,
      "060":5077,
      "ĠProgram":5078,
      "Ġboard":5079,
      "Ã£o":5080,
      "Count":5081,
      "igious":5082,
      "sey":5083,
      "program":5084,
      "Ġearlier":5085,
      ")]],":5086,
      "mov":5087,
      "Ġnecess":5088,
      "ĠHill":5089,
      "Ġclimate":5090,
      "Ġjud":5091,
      "Ġtoday":5092,
      "Ġunits":5093,
      "ĠOrigin":5094,
      "mat":5095,
      "Ġreading":5096,
      "Ġcaused":5097,
      "Ġtechnology":5098,
      "Canad":5099,
      "Hel":5100,
      "Ġwife":5101,
      "ĠSen":5102,
      "ĠMiddle":5103,
      "abs":5104,
      "Ġalways":5105,
      "ĠMuslim":5106,
      "node":5107,
      "Ġbranch":5108,
      "Ġhor":5109,
      "abeth":5110,
      "rone":5111,
      "Ġconstruction":5112,
      "ker":5113,
      "Ġsound":5114,
      "Ġcode":5115,
      "304":5116,
      "ucle":5117,
      "Ġmajority":5118,
      "perseus":5119,
      "ĠFootball":5120,
      "137":5121,
      "ilding":5122,
      "Ġcultural":5123,
      "Ġinc":5124,
      "Ġmatch":5125,
      "154":5126,
      "Ġforest":5127,
      "Ġproperties":5128,
      "From":5129,
      "esch":5130,
      "Ġaward":5131,
      "303":5132,
      "ĠVirgin":5133,
      "PS":5134,
      "Ġwhether":5135,
      "nel":5136,
      "rec":5137,
      "orship":5138,
      "ĠĠĠĠĠĠĠĠĠĠĠĠĠĠĠĠ":5139,
      "Ġshell":5140,
      "lins":5141,
      "402":5142,
      "Routledge":5143,
      "omp":5144,
      "emis":5145,
      "General":5146,
      "Ġtroops":5147,
      "Bern":5148,
      "home":5149,
      "museum":5150,
      "Ġflo":5151,
      "igan":5152,
      "174":5153,
      "Saint":5154,
      "ients":5155,
      "andy":5156,
      "Ġnor":5157,
      "ĠHung":5158,
      "Ġdiscovered":5159,
      "Wil":5160,
      "Ġthems":5161,
      "Ġproduce":5162,
      "Ġpoints":5163,
      "orith":5164,
      "ĠTechnology":5165,
      "ĠOffice":5166,
      "Ġthemselves":5167,
      "usical":5168,
      "ĠMal":5169,
      "157":5170,
      "rizona":5171,
      "Ġ178":5172,
      "Ġregular":5173,
      "ĠAirport":5174,
      "Ġbillion":5175,
      "orders":5176,
      "Ġsequ":5177,
      "auer":5178,
      "Ġloss":5179,
      "hal":5180,
      "may":5181,
      "anks":5182,
      "149":5183,
      "warzen":5184,
      "entertainment":5185,
      "ĠOrganization":5186,
      "Ġcompanies":5187,
      "just":5188,
      "ipe":5189,
      "271":5190,
      "Ġyoung":5191,
      "603":5192,
      "vol":5193,
      "ĠStand":5194,
      "Ġemerg":5195,
      "Ġseparate":5196,
      "ais":5197,
      "erus":5198,
      "307":5199,
      "Ġlimited":5200,
      "global":5201,
      "Ġreplaced":5202,
      "atabase":5203,
      "agu":5204,
      "ĠDuke":5205,
      "onent":5206,
      "''',":5207,
      "Ġeight":5208,
      "CT":5209,
      "]]-":5210,
      "ĠSun":5211,
      "athematics":5212,
      "Ġembassy":5213,
      "Ġsignal":5214,
      "Ġborder":5215,
      "ĠMedia":5216,
      "Ġ177":5217,
      "Ġbeginning":5218,
      "Ġalternative":5219,
      "Ġmm":5220,
      "ĠCast":5221,
      "Ġoffic":5222,
      "eorgia":5223,
      "ĠSwed":5224,
      "Ġ...":5225,
      "hand":5226,
      "mod":5227,
      "ĠBalt":5228,
      "Ġcells":5229,
      "Fred":5230,
      "Ġwhom":5231,
      "lication":5232,
      "culture":5233,
      "Ġdu":5234,
      "_p":5235,
      "rate":5236,
      "ye":5237,
      "Åį":5238,
      "148":5239,
      "Ġ181":5240,
      "Ġpersonal":5241,
      "Ġstatus":5242,
      "Other":5243,
      "----":5244,
      "worth":5245,
      "Ġmyth":5246,
      "luet":5247,
      "race":5248,
      "306":5249,
      "ĠAthens":5250,
      "AB":5251,
      "Ġdocument":5252,
      "ĠBotswana":5253,
      "Ġcenturies":5254,
      "who":5255,
      "Dis":5256,
      "Turk":5257,
      "209":5258,
      "ĠMont":5259,
      "ĠFaso":5260,
      "irection":5261,
      "soft":5262,
      "print":5263,
      "Anth":5264,
      "OC":5265,
      "sec":5266,
      "long":5267,
      "cht":5268,
      "ĠBol":5269,
      "ĠBible":5270,
      "raves":5271,
      "ĠInf":5272,
      "Ġdepict":5273,
      "Ġrecorded":5274,
      "Ġbelow":5275,
      "Second":5276,
      "ĠData":5277,
      "Ġste":5278,
      "Ġproblem":5279,
      "warzeneg":5280,
      "ĠBu":5281,
      "orus":5282,
      "Ġinsp":5283,
      "iling":5284,
      "ĠKhan":5285,
      "Ġprote":5286,
      ";.{{":5287,
      "Off":5288,
      "ĠProject":5289,
      "iplomatic":5290,
      "|/":5291,
      "ĠAstron":5292,
      "iform":5293,
      "Ġmostly":5294,
      "Î»":5295,
      "Ġtoo":5296,
      "ĠJul":5297,
      "earing":5298,
      "Ġradio":5299,
      "Ġmultiple":5300,
      "309":5301,
      "ĠâĪĴ":5302,
      "|+":5303,
      "stud":5304,
      "Ġpath":5305,
      "aging":5306,
      "Ġlegal":5307,
      "Ġpmc":5308,
      "unct":5309,
      "imb":5310,
      "ĠParliament":5311,
      "estic":5312,
      "ĠCarol":5313,
      "amas":5314,
      "eme":5315,
      "291":5316,
      "cock":5317,
      "irm":5318,
      "ĠSpears":5319,
      "cos":5320,
      "wer":5321,
      "exico":5322,
      "redirect":5323,
      "White":5324,
      "ume":5325,
      "ĠEp":5326,
      "ĠVolume":5327,
      "heim":5328,
      "king":5329,
      "sur":5330,
      "Ġbrother":5331,
      "Ġmetal":5332,
      "OM":5333,
      "Ser":5334,
      "bus":5335,
      "ropped":5336,
      "Ġdaughter":5337,
      "415":5338,
      "á¸":5339,
      "Ġdiss":5340,
      "Ġdynasty":5341,
      "Ġlook":5342,
      "Ġdefined":5343,
      "_of_":5344,
      "900":5345,
      "Mat":5346,
      "Ġpay":5347,
      "Ġdam":5348,
      "Ġdirectly":5349,
      "rovers":5350,
      "ables":5351,
      "Budd":5352,
      "Jean":5353,
      "ĠSocial":5354,
      "uls":5355,
      "ĠAncient":5356,
      "Ġphilosophy":5357,
      "fault":5358,
      "ambigu":5359,
      "zz":5360,
      "uba":5361,
      "ĠJr":5362,
      "Ġalk":5363,
      "lections":5364,
      "ano":5365,
      "Ġmagn":5366,
      "ĠAtlanta":5367,
      "warzenegger":5368,
      "active":5369,
      "051":5370,
      "Ġresistance":5371,
      "ds":5372,
      "Ġgrad":5373,
      "Ġstars":5374,
      "she":5375,
      "obe":5376,
      "].":5377,
      "iph":5378,
      "onic":5379,
      "Ġliterature":5380,
      "Ġdistinct":5381,
      "serv":5382,
      "ĠGold":5383,
      "aven":5384,
      "ncyclop":5385,
      "Ġcharacters":5386,
      "Ġdestroy":5387,
      "green":5388,
      "ancy":5389,
      "bach":5390,
      "165":5391,
      "label":5392,
      "Ġoperations":5393,
      "ynthesis":5394,
      "aft":5395,
      "watch":5396,
      "ima":5397,
      "Ġsupported":5398,
      "kg":5399,
      "Ġsu":5400,
      "139":5401,
      "Ġplants":5402,
      "viation":5403,
      "enberg":5404,
      "asons":5405,
      "phet":5406,
      "Ġsuper":5407,
      "]}}":5408,
      "Ġpolicy":5409,
      "Ġ60":5410,
      "ĠOnline":5411,
      "ÃŃa":5412,
      "Met":5413,
      "Ġtheore":5414,
      "Ġstep":5415,
      "Ġproposed":5416,
      "Ġquant":5417,
      "Id":5418,
      "erry":5419,
      "ealand":5420,
      "elle":5421,
      "ĠTexas":5422,
      "ĠTheir":5423,
      "Ġcontract":5424,
      "ben":5425,
      "Ð²":5426,
      "Ġcult":5427,
      "Ġfle":5428,
      "ĠSub":5429,
      "cientific":5430,
      "amaic":5431,
      "ORT":5432,
      "bl":5433,
      "Ġlatter":5434,
      "Ġminor":5435,
      "Ġcorrespond":5436,
      "unction":5437,
      "ĠSam":5438,
      "ĠPeter":5439,
      "Ġbetter":5440,
      "Further":5441,
      "mil":5442,
      "erem":5443,
      "Ġprevent":5444,
      "ĠDirect":5445,
      "Ġvariety":5446,
      "istotle":5447,
      "PR":5448,
      "orig":5449,
      "Ġproblems":5450,
      "Ġdetermin":5451,
      "ĠAffairs":5452,
      "inity":5453,
      "Ġstage":5454,
      "Ġsearch":5455,
      "Ġargu":5456,
      "Ġlaws":5457,
      "Ã±":5458,
      "struction":5459,
      "ĠMur":5460,
      "Ġanimals":5461,
      "Public":5462,
      "iant":5463,
      "Ġever":5464,
      "default":5465,
      "One":5466,
      "''),":5467,
      "dk":5468,
      "flight":5469,
      "mvar":5470,
      "Ġalready":5471,
      "bank":5472,
      "Ġapproximately":5473,
      "mag":5474,
      "uf":5475,
      "inus":5476,
      "ĠAtari":5477,
      "ĠGDP":5478,
      "cel":5479,
      "ĠSo":5480,
      "owers":5481,
      "uploads":5482,
      "Ġlett":5483,
      "Ġschools":5484,
      "Ġperformed":5485,
      "President":5486,
      "ĠĊĊ":5487,
      "oes":5488,
      "Ñı":5489,
      "oment":5490,
      "ĠHenry":5491,
      "Ġgive":5492,
      "ĠThomas":5493,
      "ĠAnglican":5494,
      "Ġrequire":5495,
      "ĠEastern":5496,
      "circa":5497,
      "Alban":5498,
      "Alt":5499,
      "Early":5500,
      "ematic":5501,
      "Ġplaced":5502,
      "white":5503,
      "Ġoriginally":5504,
      "Ġblood":5505,
      "Ġmedicine":5506,
      "Ġinvolved":5507,
      "Ġreached":5508,
      "People":5509,
      "Sal":5510,
      "ĠMilitary":5511,
      "Ġcomplete":5512,
      "ometry":5513,
      "Ġshows":5514,
      "mitted":5515,
      "non":5516,
      "ËĲ":5517,
      "spec":5518,
      "ĠOlymp":5519,
      "Ġcommercial":5520,
      "164":5521,
      "Ġsmaller":5522,
      "Jon":5523,
      "Ġsitu":5524,
      "Ġnative":5525,
      "agement":5526,
      "158":5527,
      "ronic":5528,
      "According":5529,
      "olved":5530,
      "ebrew":5531,
      "idents":5532,
      "elph":5533,
      "Ġtemperature":5534,
      "Louis":5535,
      "don":5536,
      "sm":5537,
      "ĠSince":5538,
      "uters":5539,
      "ĠFoundation":5540,
      "800":5541,
      "esth":5542,
      "edic":5543,
      "sfnm":5544,
      "reaty":5545,
      "axon":5546,
      "ĠPhilosophy":5547,
      "Ġeas":5548,
      "Act":5549,
      "_type":5550,
      "pose":5551,
      "}}),":5552,
      "Not":5553,
      "Ġpitch":5554,
      "ilton":5555,
      "Scott":5556,
      "Edward":5557,
      "ABC":5558,
      "Ġreign":5559,
      "ĠZealand":5560,
      "ĠForeign":5561,
      "burgh":5562,
      "europe":5563,
      "Ġpen":5564,
      "emorial":5565,
      "812":5566,
      "SS":5567,
      "kes":5568,
      "lon":5569,
      "ivia":5570,
      "163":5571,
      "ĠSaint":5572,
      "short":5573,
      "Ġestimated":5574,
      "ĠCensus":5575,
      "ummer":5576,
      "Ġaddress":5577,
      "corpor":5578,
      "gn":5579,
      "}{":5580,
      "ĠCr":5581,
      "ĠDaily":5582,
      "Ġalcohol":5583,
      "Ġspirit":5584,
      "Ġresponse":5585,
      "yal":5586,
      "Ġcreat":5587,
      "Ġmer":5588,
      "ĠDen":5589,
      "anti":5590,
      "Ġsurround":5591,
      "Mu":5592,
      "idity":5593,
      "ĠArts":5594,
      "232":5595,
      "oken":5596,
      "Ġgreater":5597,
      "nik":5598,
      "Ġappeared":5599,
      "Ġmeasure":5600,
      "eton":5601,
      "Ġcareer":5602,
      "Ġprobably":5603,
      "CH":5604,
      "oting":5605,
      "apy":5606,
      "product":5607,
      "Ġcomposer":5608,
      "Image":5609,
      "erusalem":5610,
      "052":5611,
      "Ġstudents":5612,
      "docs":5613,
      "documents":5614,
      "Ġhistorian":5615,
      "Bas":5616,
      "rev":5617,
      "Ġspeed":5618,
      "onents":5619,
      "asi":5620,
      "ĠMa":5621,
      "ĠOver":5622,
      "ĠKore":5623,
      "Ġworking":5624,
      "Redirect":5625,
      "aled":5626,
      "Ġtransfer":5627,
      "Hol":5628,
      "Ġhit":5629,
      "uts":5630,
      "Ġchapter":5631,
      "eoples":5632,
      "Ken":5633,
      "}}|":5634,
      "ĠTra":5635,
      "ibn":5636,
      "izations":5637,
      "Ġ32":5638,
      "Time":5639,
      "omical":5640,
      "usion":5641,
      "091":5642,
      "Ġelected":5643,
      "Li":5644,
      "Ġmicro":5645,
      "Ġmemory":5646,
      "ospital":5647,
      "Ġmarried":5648,
      "Mah":5649,
      "lib":5650,
      "Ġopt":5651,
      "ĠEth":5652,
      "ota":5653,
      "ĠCard":5654,
      "ĠMet":5655,
      "Ġemperor":5656,
      "Ġbridge":5657,
      "Springer":5658,
      "dep":5659,
      "review":5660,
      "begin":5661,
      "PT":5662,
      "Ġmar":5663,
      "Ġcalc":5664,
      "Ġpattern":5665,
      "ws":5666,
      "Ġcust":5667,
      "ĠAut":5668,
      "ĠColumbia":5669,
      "ĠJackson":5670,
      "ngth":5671,
      "tech":5672,
      "Ġ150":5673,
      "Ġneigh":5674,
      "Western":5675,
      "ĠIslamic":5676,
      "600":5677,
      "ĠOpen":5678,
      "Southern":5679,
      "Ġsac":5680,
      "Stat":5681,
      "Ġappears":5682,
      "Ġrain":5683,
      "ĠSouthern":5684,
      "computer":5685,
      "ĠRobert":5686,
      "phas":5687,
      "ĠCharles":5688,
      "ĠAlbania":5689,
      "Ġillust":5690,
      "ĠClinton":5691,
      "Rob":5692,
      "today":5693,
      "ully":5694,
      "delaide":5695,
      "061":5696,
      "403":5697,
      "bishop":5698,
      "opa":5699,
      "242":5700,
      "Ġperformance":5701,
      "gl":5702,
      "arct":5703,
      "ĠCulture":5704,
      "Ġcompared":5705,
      "luetooth":5706,
      "ĠJust":5707,
      "aints":5708,
      "ĠChemistry":5709,
      "âĪĴ":5710,
      "Ġsnow":5711,
      "ĠOcean":5712,
      "412":5713,
      "Ð´":5714,
      "item":5715,
      "adium":5716,
      "Ġadopted":5717,
      "alg":5718,
      "ĠMagazine":5719,
      "ĠIreland":5720,
      "ĠVer":5721,
      "Ġsculpt":5722,
      "Ġrepresented":5723,
      "know":5724,
      "pa":5725,
      "otics":5726,
      "Ġfederal":5727,
      "ĠPlay":5728,
      "inson":5729,
      "oper":5730,
      "Ã¡n":5731,
      "Ġwriters":5732,
      "Ġprior":5733,
      "erick":5734,
      "album":5735,
      "ĠIrish":5736,
      "090":5737,
      "AAA":5738,
      "Ġbehav":5739,
      "Central":5740,
      "igenous":5741,
      "ederation":5742,
      "Ġglobal":5743,
      "Ġ''{{":5744,
      "ĠStreet":5745,
      "awards":5746,
      "Ġstrateg":5747,
      "ĠCorporation":5748,
      "inline":5749,
      "ographical":5750,
      "opher":5751,
      "Ġphysical":5752,
      "ambiguation":5753,
      "Ġthreat":5754,
      "Ġmale":5755,
      "Ġgold":5756,
      "allen":5757,
      "138":5758,
      "Ġspect":5759,
      "english":5760,
      "bean":5761,
      "ĠOrder":5762,
      "ĠAtlantic":5763,
      "014":5764,
      "Cla":5765,
      "Ġfr":5766,
      "ĠDi":5767,
      "Berlin":5768,
      "miss":5769,
      "oven":5770,
      "Church":5771,
      "Rad":5772,
      "seud":5773,
      "173":5774,
      "Ġ179":5775,
      "fi":5776,
      "pers":5777,
      "Ġbibcode":5778,
      "ĠAN":5779,
      "ĠAnal":5780,
      "ĠMary":5781,
      "ĠRichard":5782,
      "ĠChristianity":5783,
      "che":5784,
      "ĠDivision":5785,
      "401":5786,
      "Science":5787,
      "pi":5788,
      "Ġdmy":5789,
      "ĠSol":5790,
      "igr":5791,
      "ading":5792,
      "aceae":5793,
      "Ġleague":5794,
      "What":5795,
      ";),":5796,
      "ĠGame":5797,
      "astron":5798,
      "Ġimplement":5799,
      "Ġwhole":5800,
      "iamond":5801,
      "aeus":5802,
      "Ġdemon":5803,
      "Ġens":5804,
      "CE":5805,
      "ibly":5806,
      "Ġexhib":5807,
      "fts":5808,
      "ĠThat":5809,
      "ĠAndrew":5810,
      "Ġscholars":5811,
      "Ġidea":5812,
      "FC":5813,
      "Some":5814,
      "UR":5815,
      "_t":5816,
      "orra":5817,
      "Ġpsych":5818,
      "arters":5819,
      "Ġtherefore":5820,
      "When":5821,
      "Ġtrue":5822,
      "Ġactivity":5823,
      "dia":5824,
      "Ġshown":5825,
      "Ġcollection":5826,
      "Ġbg":5827,
      "espite":5828,
      "politics":5829,
      "nes":5830,
      "unk":5831,
      "ĠMount":5832,
      "ulate":5833,
      "Ġnearly":5834,
      ";]]":5835,
      "Ġsens":5836,
      "acecraft":5837,
      "Ġmakes":5838,
      "ĠGreen":5839,
      "ĠTwo":5840,
      "Brown":5841,
      "abc":5842,
      "acks":5843,
      "ietnam":5844,
      "_place":5845,
      "oen":5846,
      "yrian":5847,
      "eric":5848,
      "hdl":5849,
      "During":5850,
      "star":5851,
      "ilies":5852,
      "isters":5853,
      "Kingdom":5854,
      "rÃ©":5855,
      "ta":5856,
      "Ġhyp":5857,
      "inking":5858,
      "Ġ'''[[":5859,
      "Ġletters":5860,
      "710":5861,
      "_id":5862,
      "ĠBill":5863,
      "Ġrisk":5864,
      "Ġobt":5865,
      "Ġlevels":5866,
      "Mur":5867,
      "font":5868,
      "Ġfail":5869,
      "ĠPeople":5870,
      "Ġalleg":5871,
      "ollowing":5872,
      "=''":5873,
      "Catholic":5874,
      "orter":5875,
      "ady":5876,
      "ĠRh":5877,
      "Bur":5878,
      "abin":5879,
      "Ġlargely":5880,
      "022":5881,
      "Jo":5882,
      "Ġhous":5883,
      "ebook":5884,
      "etary":5885,
      "ĠEducation":5886,
      "071":5887,
      "Ġlog":5888,
      "ĠStudy":5889,
      "cu":5890,
      "Ġguitar":5891,
      "Ġut":5892,
      "501":5893,
      "DA":5894,
      "Ġjournalist":5895,
      "Ġcontains":5896,
      "State":5897,
      "mo":5898,
      "Ġcandid":5899,
      "acqu":5900,
      "ĠMichael":5901,
      "olas":5902,
      "Ġprint":5903,
      "stitu":5904,
      "Ġremain":5905,
      "Ġalgebra":5906,
      "Ġwood":5907,
      "Ġsociety":5908,
      "Ġreve":5909,
      "ruce":5910,
      "Ġunivers":5911,
      "|'''":5912,
      "ĠAlexandria":5913,
      "Ġchief":5914,
      "Ġhighly":5915,
      "Ġrespective":5916,
      "Ġinfluenced":5917,
      "Ġmanager":5918,
      "Ġdisease":5919,
      ".''":5920,
      "hl":5921,
      "icas":5922,
      "ĠWeb":5923,
      "ĠInformation":5924,
      "262":5925,
      "Ġpotential":5926,
      "ĠPortugal":5927,
      "='":5928,
      "SP":5929,
      "Ġdivided":5930,
      "Bot":5931,
      "Law":5932,
      "oust":5933,
      "Ġcannot":5934,
      "itting":5935,
      "Ġcritic":5936,
      "olecular":5937,
      "ĠLincoln":5938,
      "ãģ":5939,
      "Ġwant":5940,
      "Sub":5941,
      "atlant":5942,
      "ĠMich":5943,
      "ĠHaw":5944,
      "annel":5945,
      "otor":5946,
      "Ġbound":5947,
      "ĠMil":5948,
      "inners":5949,
      "Ġ]]":5950,
      "note":5951,
      "Ġhere":5952,
      "undred":5953,
      "oca":5954,
      "Internet":5955,
      "Ġround":5956,
      "Eastern":5957,
      "Ġcred":5958,
      "Ġadditional":5959,
      "ĠBCE":5960,
      "Ġmethods":5961,
      "Baseball":5962,
      "Date":5963,
      "eaking":5964,
      "Ġcard":5965,
      "Ġclear":5966,
      "etter":5967,
      "azi":5968,
      "Ġgraph":5969,
      "ĠBelgium":5970,
      "CA":5971,
      "Washington":5972,
      "webarchive":5973,
      "angel":5974,
      "Pre":5975,
      "Å«":5976,
      "Ġcontrast":5977,
      "Ġprimarily":5978,
      "ewis":5979,
      "newspapers":5980,
      "illage":5981,
      "songwriter":5982,
      "ika":5983,
      "ĠAnhalt":5984,
      "ĠForces":5985,
      "Ep":5986,
      "Ġsm":5987,
      "}}''":5988,
      "emic":5989,
      "ĠRock":5990,
      "ocuments":5991,
      "itors":5992,
      "Wood":5993,
      "sq":5994,
      "Ġinvent":5995,
      "ĠAlg":5996,
      "ĠEngine":5997,
      "otion":5998,
      "room":5999,
      "Ġdeep":6000,
      "Ġship":6001,
      "region":6002,
      "ĠPrince":6003,
      "About":6004,
      "mlb":6005,
      "ĠAI":6006,
      "illes":6007,
      "Ġbelief":6008,
      "Ġfigure":6009,
      "Ġtarget":6010,
      "Japan":6011,
      "mfa":6012,
      "166":6013,
      "Ġderived":6014,
      "Rec":6015,
      "iac":6016,
      "ining":6017,
      "stm":6018,
      "Ġbacter":6019,
      "etween":6020,
      "ĠFact":6021,
      "ĠOut":6022,
      "aka":6023,
      "izabeth":6024,
      "Ġchemical":6025,
      "elt":6026,
      "]]{{":6027,
      "aman":6028,
      "Ġislands":6029,
      "ibbean":6030,
      "ĠChicago":6031,
      "Alan":6032,
      "ĠĠĠĠĠĠĠĠĠĠĠĠĠĠĠ":6033,
      "Ġbehind":6034,
      "uscript":6035,
      "Ġbgcolor":6036,
      "Ùħ":6037,
      "onian":6038,
      "alm":6039,
      "ĠCE":6040,
      "ĠDel":6041,
      "rance":6042,
      "alty":6043,
      "ĠEmperor":6044,
      "ĠDistrict":6045,
      "icht":6046,
      "ryst":6047,
      "Ġrules":6048,
      "Arthur":6049,
      "rison":6050,
      "Ġcitiz":6051,
      "Ġnumerous":6052,
      "404":6053,
      "Nobel":6054,
      "increase":6055,
      "ĠEnd":6056,
      "aya":6057,
      "Ġissues":6058,
      "Russian":6059,
      "laps":6060,
      "puting":6061,
      "Ġimpact":6062,
      "rical":6063,
      "222":6064,
      "raeli":6065,
      "Ġcarry":6066,
      "oses":6067,
      "Ġrat":6068,
      "icrosoft":6069,
      "405":6070,
      "Gal":6071,
      "Polit":6072,
      "mosph":6073,
      "Ġunc":6074,
      "ĠForm":6075,
      "ante":6076,
      "Alex":6077,
      "ĠGrand":6078,
      "ĠGlobal":6079,
      "ĠWarhol":6080,
      "Ġrelatively":6081,
      "ULTS":6082,
      "OT":6083,
      "SA":6084,
      "yi":6085,
      "Stephen":6086,
      "Ġevolution":6087,
      "Ġsoon":6088,
      "Ġarchitecture":6089,
      "Ġsays":6090,
      "raf":6091,
      "imens":6092,
      "Ġcentre":6093,
      "Ġactive":6094,
      "****":6095,
      "error":6096,
      "nold":6097,
      "ynd":6098,
      "quad":6099,
      "ĠAT":6100,
      "Ġhar":6101,
      "ĠMaced":6102,
      "auto":6103,
      "Class":6104,
      "Ġchurches":6105,
      "andbook":6106,
      "imore":6107,
      "ullet":6108,
      "Ã©e":6109,
      "Ġ80":6110,
      "Ġtraining":6111,
      "Cor":6112,
      "Ġpeace":6113,
      "archy":6114,
      "ĠPo":6115,
      "cluding":6116,
      "olitan":6117,
      "Ġdecla":6118,
      "chemistry":6119,
      "Luc":6120,
      "Ġalphabet":6121,
      "ibli":6122,
      "Alfred":6123,
      "Ġartist":6124,
      "Ġsuggested":6125,
      "ĠEconomic":6126,
      "iring":6127,
      "ĠTour":6128,
      "ĠEgyptian":6129,
      "Ġbasis":6130,
      "Ġinitial":6131,
      "athematical":6132,
      "Ġearliest":6133,
      "emitism":6134,
      "904":6135,
      "onor":6136,
      "Ġ|[[":6137,
      "ression":6138,
      "cles":6139,
      "Ġethnic":6140,
      "erd":6141,
      "}}||":6142,
      "Ġdraw":6143,
      "osen":6144,
      "Ġ35":6145,
      "disambiguation":6146,
      "Bob":6147,
      "anes":6148,
      "Ġvarian":6149,
      "308":6150,
      "Ġregional":6151,
      "ĠAtt":6152,
      "Ġauthority":6153,
      "Ġfriend":6154,
      "Ham":6155,
      "High":6156,
      "ĠUp":6157,
      "notes":6158,
      "Eth":6159,
      "mill":6160,
      "si":6161,
      "inth":6162,
      "arab":6163,
      "ilater":6164,
      "Ġcontribut":6165,
      "istrative":6166,
      "PN":6167,
      "mas":6168,
      "assi":6169,
      "ethod":6170,
      "ĠScottish":6171,
      "DEFA":6172,
      "Ġdirection":6173,
      "ceedings":6174,
      "Ġbenef":6175,
      "Ġwide":6176,
      "Ġpaper":6177,
      "Ġaccomp":6178,
      "Ġplaces":6179,
      "Ġindependence":6180,
      "SM":6181,
      "ygen":6182,
      "ĠWales":6183,
      "Ġnewsp":6184,
      "Ġneur":6185,
      "AAAQBAJ":6186,
      "Rog":6187,
      "gate":6188,
      "hor":6189,
      "vation":6190,
      "Ġthous":6191,
      "alism":6192,
      "Ġrare":6193,
      "Õ¡":6194,
      "ureau":6195,
      "Ġprop":6196,
      "ĠAustin":6197,
      "ULTSORT":6198,
      "DEFAULTSORT":6199,
      "Ġresulting":6200,
      "Ġcreate":6201,
      "Ġopened":6202,
      "Ġclaimed":6203,
      "Ġexperience":6204,
      "acity":6205,
      "road":6206,
      "Ġnation":6207,
      "Ġspeech":6208,
      "Ġ170":6209,
      "Ġprofessional":6210,
      "Great":6211,
      "istical":6212,
      "anger":6213,
      "ĠOper":6214,
      "Ġkeep":6215,
      "ographer":6216,
      "Ġlaunched":6217,
      "Ġwestern":6218,
      "Ġbreak":6219,
      "Harvnb":6220,
      "syl":6221,
      "irk":6222,
      "ĠFa":6223,
      "ĠOttoman":6224,
      "Ġcoup":6225,
      "Ġannual":6226,
      "Ġvertical":6227,
      "cat":6228,
      "Ø±":6229,
      "Ġbond":6230,
      "jp":6231,
      "ĠBattle":6232,
      "ĠMu":6233,
      "loom":6234,
      "ĠJesus":6235,
      "Ġlabel":6236,
      "risis":6237,
      "Ġfunctions":6238,
      "Ġpressure":6239,
      "rh":6240,
      "enes":6241,
      "eller":6242,
      "Ġobjects":6243,
      "Kn":6244,
      "Atari":6245,
      "cfm":6246,
      "IL":6247,
      "Ġfl":6248,
      "ĠCap":6249,
      "osh":6250,
      "ĠKn":6251,
      "Ġmainly":6252,
      "To":6253,
      "Ġinj":6254,
      "iki":6255,
      "032":6256,
      "Ġattract":6257,
      "which":6258,
      "official":6259,
      "equ":6260,
      "Îµ":6261,
      "Ġavo":6262,
      "term":6263,
      "ache":6264,
      "Ġprovince":6265,
      "Bos":6266,
      "Leg":6267,
      "lta":6268,
      "ĠRob":6269,
      "Ġvictory":6270,
      "406":6271,
      "ÙĬ":6272,
      "eds":6273,
      "ĠAch":6274,
      "ĠHoly":6275,
      "obs":6276,
      "ĠComputer":6277,
      "atform":6278,
      "ĠPan":6279,
      "Ġworked":6280,
      "Ġweap":6281,
      "Donald":6282,
      "Ġappointed":6283,
      "809":6284,
      "Ap":6285,
      "House":6286,
      "reas":6287,
      "elly":6288,
      "ĠYears":6289,
      "902":6290,
      "ua":6291,
      "iments":6292,
      "arneg":6293,
      "Ġrise":6294,
      "Ġnoted":6295,
      "Ġimmediate":6296,
      "Ġdesp":6297,
      "hammad":6298,
      "Ġsoldiers":6299,
      "Ash":6300,
      "ĠFlight":6301,
      "410":6302,
      "aters":6303,
      "Ġca":6304,
      "Ġearth":6305,
      "Ġance":6306,
      "Ġpresence":6307,
      "ĠArkansas":6308,
      "but":6309,
      "south":6310,
      "ĠAmsterdam":6311,
      "Er":6312,
      "word":6313,
      "168":6314,
      "Ġamb":6315,
      "Ġfamous":6316,
      "Ġtexts":6317,
      "stitutions":6318,
      "Ġquestion":6319,
      "Latin":6320,
      "christ":6321,
      "ĠPsych":6322,
      "167":6323,
      "geria":6324,
      "Ġchanged":6325,
      "EL":6326,
      "dr":6327,
      "Ġwin":6328,
      "ims":6329,
      "raq":6330,
      "Aust":6331,
      "border":6332,
      "cia":6333,
      "ĠWomen":6334,
      "Ġenough":6335,
      "ĠAssembly":6336,
      "ĠArmenian":6337,
      "Ġknowledge":6338,
      "Ġdon":6339,
      "ĠSultan":6340,
      "aste":6341,
      "iege":6342,
      "Ġsigned":6343,
      "Ġmedical":6344,
      "Ġfigures":6345,
      "810":6346,
      "key":6347,
      "Ġlunar":6348,
      "ricultural":6349,
      "plete":6350,
      "Ġscientific":6351,
      "225":6352,
      "Eur":6353,
      "plain":6354,
      "atell":6355,
      "aret":6356,
      ";[[#":6357,
      "Def":6358,
      "alities":6359,
      "Ġtree":6360,
      "Ġsuc":6361,
      "Ġfarm":6362,
      "opes":6363,
      "Ġcompleted":6364,
      "_and":6365,
      "Ġflu":6366,
      "undi":6367,
      "stantin":6368,
      "ĠStatistics":6369,
      "ĠUnder":6370,
      "Ġdeal":6371,
      "ception":6372,
      "Ø§ÙĦ":6373,
      "407":6374,
      "craft":6375,
      "pass":6376,
      "Ġdetail":6377,
      "ĠDon":6378,
      "ecause":6379,
      "ĠNetherlands":6380,
      "226":6381,
      "ĠAdd":6382,
      "Ġreference":6383,
      "Ġmodels":6384,
      "Ġstrength":6385,
      "fish":6386,
      "thew":6387,
      "alen":6388,
      "arks":6389,
      "ĠConference":6390,
      "roll":6391,
      "ĠAsian":6392,
      "Ġlegisl":6393,
      "Ġconstruct":6394,
      "Den":6395,
      "Hung":6396,
      "db":6397,
      "Ê¼":6398,
      "edral":6399,
      "ĠRuth":6400,
      "biology":6401,
      "ĠHeritage":6402,
      "Indian":6403,
      "Aj":6404,
      "Ġap":6405,
      "rog":6406,
      "ĠSing":6407,
      "ĠBusiness":6408,
      "iterary":6409,
      "Ġdistribution":6410,
      "ĠBiography":6411,
      "709":6412,
      "User":6413,
      "Ð¼":6414,
      "Ġpil":6415,
      "ession":6416,
      "Ġpoor":6417,
      "Ca":6418,
      "RA":6419,
      "mor":6420,
      "Ġsense":6421,
      "Ġbrain":6422,
      "Ġparent":6423,
      "Ġdone":6424,
      "Ġpositive":6425,
      "Alexand":6426,
      "dq":6427,
      "ĠJan":6428,
      "where":6429,
      "215":6430,
      "sim":6431,
      "health":6432,
      "ĠBronx":6433,
      "Ġple":6434,
      "alleng":6435,
      "783":6436,
      "indust":6437,
      "formed":6438,
      "ĠBrand":6439,
      "igua":6440,
      "801":6441,
      "ede":6442,
      "ĠAk":6443,
      "ĠAri":6444,
      "ador":6445,
      "Ġheav":6446,
      "Ġroad":6447,
      "Ġdistrict":6448,
      "publication":6449,
      "uisine":6450,
      "arnegie":6451,
      "',":6452,
      "013":6453,
      "mic":6454,
      "urd":6455,
      "Ġmoment":6456,
      "Ġhours":6457,
      "riff":6458,
      "ĠLi":6459,
      "izes":6460,
      "Ġrace":6461,
      "ĠProvince":6462,
      "Ġmachine":6463,
      "Ġlawyer":6464,
      "805":6465,
      "East":6466,
      "Egypt":6467,
      "Mich":6468,
      "Soviet":6469,
      "witz":6470,
      "Ġbomb":6471,
      "Ġspread":6472,
      "Ġdistance":6473,
      "Adrian":6474,
      "Å¡":6475,
      "Ïĥ":6476,
      "orf":6477,
      "works":6478,
      "ockey":6479,
      "ĠAlberta":6480,
      "cnn":6481,
      "tufts":6482,
      "409":6483,
      "509":6484,
      "Ġsector":6485,
      "ĠSecond":6486,
      "Ġeastern":6487,
      "ologies":6488,
      "ancer":6489,
      "inner":6490,
      "512":6491,
      "700":6492,
      "Res":6493,
      "rees":6494,
      "Ġlived":6495,
      "uglas":6496,
      "Ġhonor":6497,
      "Ġer":6498,
      "Perseus":6499,
      "gb":6500,
      "imed":6501,
      "504":6502,
      "aug":6503,
      "games":6504,
      "Ġreaction":6505,
      "ĠHam":6506,
      "Ġsusp":6507,
      "Ġmag":6508,
      "ĠChar":6509,
      "oka":6510,
      "Ġexpansion":6511,
      "ĠCentury":6512,
      "Ġidentified":6513,
      "ĠBoard":6514,
      "Ġimprove":6515,
      "Ãº":6516,
      "umed":6517,
      "ewh":6518,
      "iece":6519,
      "ohann":6520,
      "802":6521,
      "Ah":6522,
      "Barb":6523,
      "SI":6524,
      "sl":6525,
      "atis":6526,
      "Ġslow":6527,
      "ĠNetwork":6528,
      "obi":6529,
      "Los":6530,
      "hist":6531,
      "yout":6532,
      "Ġdram":6533,
      "agency":6534,
      "Ġget":6535,
      "Ġconvert":6536,
      "Ġkingdom":6537,
      "214":6538,
      "807":6539,
      "inals":6540,
      "stable":6541,
      "usch":6542,
      "ĠTele":6543,
      "Ġsport":6544,
      "achus":6545,
      "Ġquick":6546,
      "ĠCommittee":6547,
      "a_":6548,
      "omers":6549,
      "Ġinhib":6550,
      "Ġstop":6551,
      "Ġ70":6552,
      "aption":6553,
      "gian":6554,
      "Ġemphas":6555,
      "Daniel":6556,
      "ĠCla":6557,
      "ĠBridge":6558,
      "Ġweight":6559,
      "Ġproperty":6560,
      "Cons":6561,
      "human":6562,
      "ĠAngola":6563,
      "Ġlanding":6564,
      "gom":6565,
      "Ġmis":6566,
      "ĠCrit":6567,
      "ĠMod":6568,
      "ĠFame":6569,
      "rome":6570,
      "]]'';":6571,
      "Ġunion":6572,
      "week":6573,
      "version":6574,
      "Ġmatter":6575,
      "utsch":6576,
      "ĠStory":6577,
      "azette":6578,
      "Ġbank":6579,
      "ĠYou":6580,
      "enny":6581,
      "ĠAirlines":6582,
      "ĠRussell":6583,
      "ĠTechn":6584,
      "ĠMah":6585,
      "osa":6586,
      "Ġgun":6587,
      "ortun":6588,
      "Ġleaders":6589,
      "ivalent":6590,
      "Ġobserved":6591,
      "AW":6592,
      "African":6593,
      "MC":6594,
      "acked":6595,
      "Ġprison":6596,
      "vertising":6597,
      "Ġinternal":6598,
      "inceton":6599,
      "Ak":6600,
      "aden":6601,
      "ople":6602,
      "ificial":6603,
      "myth":6604,
      "Ġsimple":6605,
      "Ġcarried":6606,
      "408":6607,
      "Nic":6608,
      "asu":6609,
      "iversary":6610,
      "Ġintended":6611,
      "510":6612,
      "Fore":6613,
      "Ray":6614,
      "Äĩ":6615,
      "]]''.&":6616,
      "Ġmarriage":6617,
      "aud":6618,
      "stad":6619,
      "Ġbal":6620,
      "ĠGre":6621,
      "Ġyet":6622,
      "Ġpassed":6623,
      "Ġinstrument":6624,
      "ĠØ":6625,
      ";...":6626,
      "snd":6627,
      "video":6628,
      "andom":6629,
      "church":6630,
      "aliyah":6631,
      "Ġindividuals":6632,
      "Ġibn":6633,
      "lers":6634,
      "Ãī":6635,
      "Ġmunicip":6636,
      "ipment":6637,
      "ĠForest":6638,
      "ĠSecret":6639,
      "Jack":6640,
      "Victor":6641,
      "look":6642,
      "ĠTri":6643,
      "pper":6644,
      "prot":6645,
      "india":6646,
      "zy":6647,
      "ĠAberdeen":6648,
      "eman":6649,
      "illery":6650,
      "Ġarrang":6651,
      "Ġprominent":6652,
      "Ġbuildings":6653,
      "Pan":6654,
      "ares":6655,
      "yll":6656,
      "what":6657,
      "ĠBuffalo":6658,
      "ishops":6659,
      "resent":6660,
      "Ġnotes":6661,
      "Ġcontrovers":6662,
      "Ġtermin":6663,
      "Ġhumans":6664,
      "=|":6665,
      "olia":6666,
      "Ġask":6667,
      "Ġshare":6668,
      "Ġcontain":6669,
      "itchcock":6670,
      "Ġjoined":6671,
      "Ġdegree":6672,
      "ĠFranklin":6673,
      "Abb":6674,
      "wright":6675,
      "abe":6676,
      "aby":6677,
      "Ġaccepted":6678,
      "/}}":6679,
      "Ġbishop":6680,
      "Ġminister":6681,
      "Ġtaking":6682,
      "Ġvow":6683,
      "ĠIndust":6684,
      "Ġassist":6685,
      "iterran":6686,
      "EM":6687,
      "path":6688,
      "}\\":6689,
      "Ġinhab":6690,
      "lap":6691,
      "ager":6692,
      "227":6693,
      "ĠBroad":6694,
      "CC":6695,
      "fonso":6696,
      "mes":6697,
      "ĠTop":6698,
      "ested":6699,
      "arden":6700,
      "ordon":6701,
      "ĠChampionship":6702,
      "Ġability":6703,
      "Ġ500":6704,
      "ropolitan":6705,
      "vania":6706,
      "iel":6707,
      "td":6708,
      "document":6709,
      "itecture":6710,
      "Ġclaims":6711,
      "433":6712,
      "905":6713,
      "Mus":6714,
      "Ġfort":6715,
      "local":6716,
      "Ġ300":6717,
      "inding":6718,
      "Ġrapid":6719,
      "Ġdeaths":6720,
      "oza":6721,
      "702":6722,
      "birth":6723,
      "ging":6724,
      "Î¼":6725,
      "ania":6726,
      "etts":6727,
      "emin":6728,
      "Ġvaria":6729,
      "ikh":6730,
      "harmac":6731,
      "Ġrecords":6732,
      "_in":6733,
      "del":6734,
      "elve":6735,
      "lyn":6736,
      "223":6737,
      "general":6738,
      "Van":6739,
      "named":6740,
      "ario":6741,
      "chester":6742,
      "Ġgrand":6743,
      "ĠAlfred":6744,
      "Ġdepend":6745,
      "Anton":6746,
      "Ġconflict":6747,
      "Ġcomposed":6748,
      "gar":6749,
      "was":6750,
      "ĠMag":6751,
      "Ġcompounds":6752,
      "Ġdoct":6753,
      "ottom":6754,
      "Sy":6755,
      "hopper":6756,
      "orough":6757,
      "ĠTor":6758,
      "stitutional":6759,
      "Ġattacks":6760,
      "asil":6761,
      "Ġfif":6762,
      "ublican":6763,
      "216":6764,
      "Dem":6765,
      "Grand":6766,
      "Ġreject":6767,
      "169":6768,
      "iblical":6769,
      "ĠJoseph":6770,
      "pet":6771,
      "]]||":6772,
      "Ġmode":6773,
      "agram":6774,
      "rane":6775,
      "encies":6776,
      "ĠClub":6777,
      "Ġteams":6778,
      "Ġult":6779,
      "aron":6780,
      "rosby":6781,
      "Human":6782,
      "ista":6783,
      "ĠRod":6784,
      "Ġforced":6785,
      "ĠAgency":6786,
      "Ġsuccession":6787,
      "Ġdefeated":6788,
      "Ġcarbon":6789,
      "ĠAp":6790,
      "phone":6791,
      "sea":6792,
      "441":6793,
      "ennedy":6794,
      "Ġdemonstr":6795,
      "youtube":6796,
      "411":6797,
      "BR":6798,
      "fare":6799,
      "washington":6800,
      "Ġcounter":6801,
      "iano":6802,
      "ĠNorthern":6803,
      "endar":6804,
      "Ġdouble":6805,
      "ione":6806,
      "sequ":6807,
      "036":6808,
      "Ġmoney":6809,
      "Ġice":6810,
      "319":6811,
      "EF":6812,
      "Walter":6813,
      "_f":6814,
      "Ġcast":6815,
      "adelph":6816,
      "Ġcomment":6817,
      "Ġheavy":6818,
      "ildren":6819,
      "Ġcombined":6820,
      "Ġalgorith":6821,
      "Simon":6822,
      "Ġargued":6823,
      "Jeff":6824,
      "Modern":6825,
      "point":6826,
      "that":6827,
      "Ġfailed":6828,
      "Ġir":6829,
      "mal":6830,
      "utp":6831,
      "Ġnight":6832,
      "ĠBern":6833,
      "ipedia":6834,
      "Ġshowing":6835,
      "ĠPublishers":6836,
      "iscop":6837,
      "ĠĊĠ":6838,
      "**[[":6839,
      "uv":6840,
      "ersey":6841,
      "rif":6842,
      "aped":6843,
      "ĠRecords":6844,
      "UC":6845,
      "Ġsyn":6846,
      "Ġbig":6847,
      "Ġbass":6848,
      "ĠCross":6849,
      "ĠBurg":6850,
      "ĠBurkina":6851,
      "ĠPower":6852,
      "ulus":6853,
      "resh":6854,
      "ellen":6855,
      "erved":6856,
      "350":6857,
      "Ġconstant":6858,
      "Arabic":6859,
      "vanced":6860,
      "ĠBoston":6861,
      "Ġrefers":6862,
      "Ġvalues":6863,
      "Ġtechniques":6864,
      "britney":6865,
      "Ġesc":6866,
      "502":6867,
      "901":6868,
      "ĠFour":6869,
      "Ġconv":6870,
      "Ġcontext":6871,
      "iox":6872,
      "Ã¡Ê¼":6873,
      "Ministry":6874,
      "Ġdespite":6875,
      "iterranean":6876,
      "Ġda":6877,
      "ĠFestival":6878,
      "ĠToday":6879,
      "ennsyl":6880,
      "Commons":6881,
      "Reference":6882,
      "ĠCountry":6883,
      "Ġsummer":6884,
      "lation":6885,
      "lements":6886,
      "Ġbl":6887,
      "lore":6888,
      "Ġreduced":6889,
      "ĠEur":6890,
      "antage":6891,
      "Stan":6892,
      "enness":6893,
      "wikt":6894,
      "213":6895,
      "rt":6896,
      "ying":6897,
      "ÙĨ":6898,
      "agen":6899,
      "Ġfourth":6900,
      "Ġideas":6901,
      "Encyclop":6902,
      "hydro":6903,
      "ĠOct":6904,
      "ĠCommon":6905,
      "ifying":6906,
      "Ġhypoth":6907,
      "ilateral":6908,
      "313":6909,
      "Mel":6910,
      "Ġtakes":6911,
      "ĠGames":6912,
      "Ġadministration":6913,
      "abbath":6914,
      "tw":6915,
      "uminium":6916,
      "806":6917,
      "Camp":6918,
      "aeda":6919,
      "Ġnit":6920,
      "ĠMajor":6921,
      "abul":6922,
      "avens":6923,
      "ducing":6924,
      "Ġequal":6925,
      "Ġtranslation":6926,
      "Sar":6927,
      "educ":6928,
      "Ġblue":6929,
      "ĠSax":6930,
      "ĠNASA":6931,
      "ransp":6932,
      "272":6933,
      "Ġantibi":6934,
      "Ġeffective":6935,
      "ĠAustria":6936,
      "senal":6937,
      "emitic":6938,
      "gomery":6939,
      "Big":6940,
      "pm":6941,
      "rig":6942,
      "Ġbasic":6943,
      "ceeded":6944,
      "016":6945,
      "Hans":6946,
      "Major":6947,
      "Ġblock":6948,
      "rock":6949,
      "tery":6950,
      "ĠLong":6951,
      "Ġextensive":6952,
      "Ġolder":6953,
      "Ġfaith":6954,
      "219":6955,
      "908":6956,
      "Econom":6957,
      "sid":6958,
      "Ġgreen":6959,
      "cio":6960,
      "monia":6961,
      "idden":6962,
      "503":6963,
      "AG":6964,
      "Mag":6965,
      "Music":6966,
      "uration":6967,
      "ĠTheory":6968,
      "ieties":6969,
      "Ġartists":6970,
      "Ġoldest":6971,
      "Ġinitially":6972,
      "Ġrecognized":6973,
      "ultiref":6974,
      "LU":6975,
      "alib":6976,
      "Ġbit":6977,
      "ĠLee":6978,
      "ĠChron":6979,
      "ĠVan":6980,
      "features":6981,
      "ennsylvania":6982,
      "Far":6983,
      "real":6984,
      "alcons":6985,
      "Ġbus":6986,
      "Ġcensus":6987,
      "Ġpeoples":6988,
      "Ġcharge":6989,
      "aeology":6990,
      "enty":6991,
      "emen":6992,
      "Ġrot":6993,
      "Ġ33":6994,
      "erals":6995,
      "ierre":6996,
      "Ġsuccessor":6997,
      "itness":6998,
      "resources":6999,
      "Ġexpos":7000,
      "ĠAges":7001,
      "Ġmaterials":7002,
      "Ter":7003,
      "Ã¸":7004,
      "ancient":7005,
      "ĠAst":7006,
      "teen":7007,
      "Ġresources":7008,
      "Ġelections":7009,
      "Ġended":7010,
      "Philip":7011,
      "Ġmentioned":7012,
      "605":7013,
      "MAAJ":7014,
      "Rh":7015,
      "ĠAcc":7016,
      "Ġonline":7017,
      "Ġnotable":7018,
      "Ġarms":7019,
      "Ġformation":7020,
      "president":7021,
      "Ġterritories":7022,
      "Ġstructures":7023,
      "804":7024,
      "Lin":7025,
      "onial":7026,
      "ĠAdmin":7027,
      "Ġprovides":7028,
      "217":7029,
      "604":7030,
      "601":7031,
      "Carl":7032,
      "Greg":7033,
      "river":7034,
      "lett":7035,
      "openh":7036,
      "610":7037,
      "Jim":7038,
      "bc":7039,
      "oids":7040,
      "orms":7041,
      "auts":7042,
      "Ġprograms":7043,
      "ĠDemocratic":7044,
      "602":7045,
      "DwAAQBAJ":7046,
      "Lee":7047,
      "bio":7048,
      "inema":7049,
      "Ġwoman":7050,
      "ĠBoth":7051,
      "ifest":7052,
      "uster":7053,
      "Ġships":7054,
      "ĠCentre":7055,
      "ĠAnton":7056,
      "FFFF":7057,
      "Ġorganization":7058,
      "Ġcondition":7059,
      "ĠPopulation":7060,
      "Can":7061,
      "City":7062,
      "government":7063,
      "ĠAv":7064,
      "Ġsports":7065,
      "Ġexistence":7066,
      "ĠBuddhist":7067,
      "Ġbecomes":7068,
      "quarters":7069,
      "ĠBow":7070,
      "ĠAbu":7071,
      "Ġfinancial":7072,
      "Ġbelieve":7073,
      "ĠTurkey":7074,
      "Ale":7075,
      "je":7076,
      "Ġsexual":7077,
      "Ġlit":7078,
      "ĠWrit":7079,
      "ĠTem":7080,
      "Ġprogress":7081,
      "issance":7082,
      "238":7083,
      "Ġvehicle":7084,
      "Kh":7085,
      "Nov":7086,
      "Pope":7087,
      "nost":7088,
      "wise":7089,
      "raille":7090,
      "ĠPlan":7091,
      "Good":7092,
      "inian":7093,
      "Ġ120":7094,
      "rypt":7095,
      "Ġreflect":7096,
      "Ġcommunities":7097,
      "Ġturned":7098,
      "ĠSecurity":7099,
      "Ġbecoming":7100,
      "Ġfocus":7101,
      "iop":7102,
      "international":7103,
      "cher":7104,
      "Ġmath":7105,
      "Ġmusical":7106,
      "irin":7107,
      "Ġnomin":7108,
      "ĠVis":7109,
      "ÑģÑĤ":7110,
      "run":7111,
      "Ġwind":7112,
      "ĠFurther":7113,
      "Ġgrant":7114,
      "Ġcharg":7115,
      "ĠCommunity":7116,
      "907":7117,
      "scape":7118,
      "italic":7119,
      "Ġsecret":7120,
      "population":7121,
      "026":7122,
      "HE":7123,
      "Val":7124,
      "ĠUr":7125,
      "Ġunknown":7126,
      "Ġagreement":7127,
      "\">#":7128,
      "Top":7129,
      "bm":7130,
      "}}</":7131,
      "Ġtow":7132,
      "azz":7133,
      "Ġupper":7134,
      "Ġbring":7135,
      "allel":7136,
      "712":7137,
      "sf":7138,
      "elled":7139,
      "umen":7140,
      "ĠIl":7141,
      "233":7142,
      "icture":7143,
      "Ġmeet":7144,
      "ĠQueen":7145,
      "Ġsettlement":7146,
      "Õ¡Õ":7147,
      "God":7148,
      "Ġbasketball":7149,
      "235":7150,
      "Ġrelation":7151,
      "Ġphen":7152,
      "ĠBrunei":7153,
      "auri":7154,
      "ragon":7155,
      "Ġrespectively":7156,
      "507":7157,
      "dem":7158,
      "Ġweek":7159,
      "utions":7160,
      "anner":7161,
      "Ġpreviously":7162,
      "*[":7163,
      "My":7164,
      "Notes":7165,
      "dictionary":7166,
      "atha":7167,
      "282":7168,
      "ropology":7169,
      "Adam":7170,
      "RECT":7171,
      "translator":7172,
      "Ġmagnitude":7173,
      "-%":7174,
      "Mont":7175,
      "Sing":7176,
      "full":7177,
      "struct":7178,
      "ĠSym":7179,
      "Ġrecon":7180,
      "appen":7181,
      "ĠJud":7182,
      "253":7183,
      "ypes":7184,
      "Ġdecision":7185,
      "Ġautom":7186,
      "Â°C":7187,
      "Ġdefinition":7188,
      "Mary":7189,
      "Ġthings":7190,
      "Ġnucle":7191,
      "rik":7192,
      "Ġconson":7193,
      "Ġdivision":7194,
      "ĠPublications":7195,
      "ĠPortuguese":7196,
      "adelphia":7197,
      "larg":7198,
      "alse":7199,
      "ĠPakistan":7200,
      "Chem":7201,
      "value":7202,
      "venue":7203,
      "alker":7204,
      "ĠControl":7205,
      "ummary":7206,
      "Australia":7207,
      "xiety":7208,
      "amber":7209,
      "quir":7210,
      "Ġrepe":7211,
      "iab":7212,
      "scope":7213,
      "Ġdecided":7214,
      "903":7215,
      "arp":7216,
      "edd":7217,
      "orde":7218,
      "ĠVen":7219,
      "Ã©s":7220,
      "ĠArchive":7221,
      "Boston":7222,
      "second":7223,
      "Ġburn":7224,
      "Ġentered":7225,
      "ÐµÐ½":7226,
      "Ġresponsible":7227,
      "Ġ78":7228,
      "511":7229,
      "Nature":7230,
      "idel":7231,
      "ĠBre":7232,
      "ĠMer":7233,
      "uty":7234,
      "ĠRom":7235,
      "Ġanimal":7236,
      "ĠAugustine":7237,
      "western":7238,
      "505":7239,
      "Sol":7240,
      "With":7241,
      "hem":7242,
      "ently":7243,
      "una":7244,
      "ĠMir":7245,
      "umption":7246,
      "ĠDr":7247,
      "ĠFront":7248,
      "Ġcontemporary":7249,
      "Ġdistingu":7250,
      "haus":7251,
      "Ġactivities":7252,
      "Ġcarrier":7253,
      "Ġgovernor":7254,
      "ML":7255,
      "PU":7256,
      "atz":7257,
      "Ġspr":7258,
      "Ġbirds":7259,
      "ĠMen":7260,
      "ĠHel":7261,
      "the_":7262,
      "Ġdoub":7263,
      "Ġmarked":7264,
      "ĠâĨ":7265,
      "DIRECT":7266,
      "^{":7267,
      "source":7268,
      "ĠCath":7269,
      "ĠBan":7270,
      "ĠMexico":7271,
      "rix":7272,
      "ĠHa":7273,
      "ugby":7274,
      "ĠStr":7275,
      "climate":7276,
      "Ġuniversity":7277,
      "ĠAnother":7278,
      "Ġbelong":7279,
      "218":7280,
      "708":7281,
      "Div":7282,
      "olute":7283,
      "ĠRights":7284,
      "320":7285,
      "iom":7286,
      "ĠAramaic":7287,
      "ĠIntroduction":7288,
      "apollo":7289,
      "iated":7290,
      "ĠBangladesh":7291,
      "Ġgl":7292,
      "Ġfemale":7293,
      "_and_":7294,
      "Jewish":7295,
      "ÙĪ":7296,
      "alpha":7297,
      "Ġnob":7298,
      "ĠGates":7299,
      "ĠLater":7300,
      "Ġcollect":7301,
      "Ġplaying":7302,
      "Ġlove":7303,
      "REDIRECT":7304,
      "CR":7305,
      "Ġsex":7306,
      "Ġmiddle":7307,
      "Ġspoken":7308,
      "Ġparties":7309,
      "ĠAbd":7310,
      "Report":7311,
      "%)":7312,
      "Ha":7313,
      "ĠAle":7314,
      "Ġcontaining":7315,
      "ĠBrazilian":7316,
      "ĠDefense":7317,
      "Ġnecessary":7318,
      "ĠStandard":7319,
      "/*":7320,
      "Pers":7321,
      "dist":7322,
      "fs":7323,
      "Ġpron":7324,
      "ĠSy":7325,
      "ĠJones":7326,
      "Ġantip":7327,
      "Ġmissile":7328,
      "808":7329,
      "Eric":7330,
      "Rod":7331,
      "ĠAlex":7332,
      "rove":7333,
      "achen":7334,
      "254":7335,
      "Ġremaining":7336,
      "division":7337,
      "Ġbroadcast":7338,
      "achusetts":7339,
      "Dan":7340,
      "LC":7341,
      "uation":7342,
      "edict":7343,
      "ĠStan":7344,
      "eeks":7345,
      "DS":7346,
      "mouth":7347,
      "Ġdie":7348,
      "Ġ176":7349,
      "ĠExper":7350,
      "Ġpainter":7351,
      "mn":7352,
      "isa":7353,
      "eler":7354,
      "ĠGeorgia":7355,
      "ĠRelations":7356,
      "Ġbattles":7357,
      "ÏĢ":7358,
      "unes":7359,
      "Abd":7360,
      "Ġpublication":7361,
      "Ġpresented":7362,
      "Ġoffered":7363,
      "803":7364,
      "dess":7365,
      "digital":7366,
      "lik":7367,
      "Ġban":7368,
      "aded":7369,
      "berlin":7370,
      "Ġplays":7371,
      "Ġ}},":7372,
      "Francis":7373,
      "Ġprogramming":7374,
      "travel":7375,
      "Ġ*/":7376,
      "910":7377,
      "912":7378,
      "char":7379,
      "ĠPen":7380,
      "ĠArm":7381,
      "Ġ34":7382,
      "'''&":7383,
      "''':":7384,
      "Ġfamilies":7385,
      "Sa":7386,
      "rin":7387,
      "isode":7388,
      "ĠBaptist":7389,
      "Ġbey":7390,
      "lind":7391,
      "independent":7392,
      "Atlanta":7393,
      "(''":7394,
      "ji":7395,
      "Ġsites":7396,
      "ĠBav":7397,
      "Ġheart":7398,
      "042":7399,
      "ĠAugustus":7400,
      "enger":7401,
      "Ġ(''[[":7402,
      "oud":7403,
      "xiv":7404,
      "ourts":7405,
      "ĠTrad":7406,
      "Ġconstitu":7407,
      "ribune":7408,
      "Ġscholar":7409,
      "chemical":7410,
      "ĠPolish":7411,
      "520":7412,
      "Lev":7413,
      "Ġsl":7414,
      "ilk":7415,
      "Ġhundred":7416,
      "ĠBulgarian":7417,
      "imary":7418,
      "raine":7419,
      "Ġgives":7420,
      "243":7421,
      "263":7422,
      "360":7423,
      "raction":7424,
      "ĠBermuda":7425,
      "Ġallows":7426,
      "ooperation":7427,
      "321":7428,
      "Marg":7429,
      "ito":7430,
      "Ġdedic":7431,
      "ĠLord":7432,
      "Chicago":7433,
      "wealth":7434,
      "Str":7435,
      "Ã©t":7436,
      "Ġextended":7437,
      "Ġinvasion":7438,
      "ische":7439,
      ">/*":7440,
      "oured":7441,
      "tem":7442,
      "Îº":7443,
      "Ġbrief":7444,
      "imin":7445,
      "256":7446,
      "292":7447,
      "eeth":7448,
      "players":7449,
      "ĠWilliams":7450,
      "pubs":7451,
      "phetamine":7452,
      "IP":7453,
      "Long":7454,
      "ellect":7455,
      "cele":7456,
      "Ġ160":7457,
      "Ġfavor":7458,
      "224":7459,
      "Ġpal":7460,
      "ĠCre":7461,
      "ĠHor":7462,
      "ĠLM":7463,
      "Ġexamples":7464,
      "Ġ45":7465,
      "237":7466,
      "Ġ90":7467,
      "guide":7468,
      "bial":7469,
      "ĠLiber":7470,
      "Ġvary":7471,
      "Ġelectric":7472,
      "ĠByzantine":7473,
      "Na":7474,
      "gon":7475,
      "wig":7476,
      "aming":7477,
      "ĠSk":7478,
      "ĠTrade":7479,
      ")|''":7480,
      "afe":7481,
      "Ġnegative":7482,
      "Ġbeyond":7483,
      "Av":7484,
      "RS":7485,
      "table":7486,
      "abh":7487,
      "249":7488,
      "overty":7489,
      "338":7490,
      "Ġdepos":7491,
      "ĠRegion":7492,
      "ĠOfficial":7493,
      "Ġdeclared":7494,
      "ĊĠĠĠ":7495,
      "You":7496,
      "dc":7497,
      "system":7498,
      "albert":7499,
      "Ġcart":7500,
      "Ġfully":7501,
      "ĠJerusalem":7502,
      "Special":7503,
      "Ġoperating":7504,
      "Ġempire":7505,
      "ishes":7506,
      "accessdate":7507,
      "uchy":7508,
      "stract":7509,
      "Commun":7510,
      "Ġoperation":7511,
      "Ġcritical":7512,
      "ĠPhilipp":7513,
      "Dutch":7514,
      "anim":7515,
      "elsh":7516,
      "ĠKyi":7517,
      "Ġconsists":7518,
      "ĠRepresent":7519,
      "ĠAbout":7520,
      "Ġrestrict":7521,
      "Ġoccurred":7522,
      "bow":7523,
      "Ġslight":7524,
      "Ġpair":7525,
      "ĠLiterature":7526,
      "Ġtheorem":7527,
      "ĠÄ":7528,
      "Bol":7529,
      "Di":7530,
      "Dep":7531,
      "Ġcontent":7532,
      "oks":7533,
      "ĠAmazon":7534,
      "biography":7535,
      "design":7536,
      "fig":7537,
      "icity":7538,
      "Ġcru":7539,
      "ĠArizona":7540,
      "ingham":7541,
      "ĠNatural":7542,
      "states":7543,
      "journals":7544,
      "ĠVictor":7545,
      "239":7546,
      "Spanish":7547,
      "ĠAustrian":7548,
      "Ġremoved":7549,
      "Life":7550,
      "Oct":7551,
      "iti":7552,
      "asy":7553,
      "Ġface":7554,
      "lov":7555,
      "ĠFood":7556,
      "Ġroyal":7557,
      "stories":7558,
      "Ġmanagement":7559,
      "Day":7560,
      "wick":7561,
      "ening":7562,
      "antry":7563,
      "uran":7564,
      "ĠAinu":7565,
      "ĠHop":7566,
      "ĠUs":7567,
      "Ġuniverse":7568,
      "aurus":7569,
      "Ġallowing":7570,
      "Sk":7571,
      "modern":7572,
      "Ġmuseum":7573,
      "ayy":7574,
      "ĠTheatre":7575,
      "ffic":7576,
      "death":7577,
      "Ġspent":7578,
      "244":7579,
      "everal":7580,
      "ĠBrussels":7581,
      "Taylor":7582,
      "Ã¢":7583,
      "stance":7584,
      "enz":7585,
      "reflist":7586,
      "Ġmix":7587,
      "ĠFre":7588,
      "Ġ36":7589,
      "ribute":7590,
      "Ġdevice":7591,
      "Ġordered":7592,
      "Ġnewspaper":7593,
      "stantinople":7594,
      "person":7595,
      "wst":7596,
      "Ġnine":7597,
      "ĠShar":7598,
      "Ġvote":7599,
      "ymn":7600,
      "Ġunderg":7601,
      "?|":7602,
      "Bay":7603,
      "MA":7604,
      "andon":7605,
      "Ġsoc":7606,
      "ĠMel":7607,
      "Ġlingu":7608,
      "linical":7609,
      "245":7610,
      "228":7611,
      "ynamics":7612,
      "ĠValley":7613,
      "906":7614,
      "Mer":7615,
      "has":7616,
      "chron":7617,
      "ĠEss":7618,
      "ĠGr":7619,
      "Ġatom":7620,
      "Ġchoice":7621,
      "Ġapplied":7622,
      "Ġsecurity":7623,
      "Azerbaijan":7624,
      "Lab":7625,
      "OV":7626,
      "section":7627,
      "metic":7628,
      "ĠReligion":7629,
      "Ġcontinue":7630,
      "ĠClassical":7631,
      "rodite":7632,
      "More":7633,
      "bon":7634,
      "power":7635,
      "Ġincorpor":7636,
      "asian":7637,
      "Ġconclud":7638,
      "Ġexact":7639,
      "Ġshift":7640,
      "234":7641,
      "Russell":7642,
      "Ġclosed":7643,
      "aliban":7644,
      "811":7645,
      "acker":7646,
      "ancing":7647,
      "Ġphilosopher":7648,
      "ompson":7649,
      "Po":7650,
      "Ver":7651,
      "ulo":7652,
      "Ġanarch":7653,
      "Ġenvironment":7654,
      "backs":7655,
      "Ġindustrial":7656,
      "Jones":7657,
      "SR":7658,
      "uer":7659,
      "this":7660,
      "itations":7661,
      "uros":7662,
      "ĠTw":7663,
      "ĠTown":7664,
      "Ġcomes":7665,
      "ruck":7666,
      "Ġ37":7667,
      "229":7668,
      "Ġfrequently":7669,
      "Ġachieve":7670,
      "Islamic":7671,
      "Ġurban":7672,
      "Ke":7673,
      "best":7674,
      "Ġcouncil":7675,
      "''}}":7676,
      "acking":7677,
      "mathbf":7678,
      "Ġ175":7679,
      "Ġsongs":7680,
      "Ġregarded":7681,
      "Ur":7682,
      "entry":7683,
      "ĠBak":7684,
      "phil":7685,
      "Ã¦dia":7686,
      "ĠRadio":7687,
      "Ġspiritual":7688,
      "330":7689,
      "Mad":7690,
      "ea":7691,
      "food":7692,
      "pc":7693,
      "acob":7694,
      "iden":7695,
      "imental":7696,
      "anges":7697,
      "ava":7698,
      "Ġchart":7699,
      "lined":7700,
      "related":7701,
      "Britney":7702,
      "atalog":7703,
      "Ġgreatest":7704,
      "ĠReference":7705,
      "Ġquickly":7706,
      "Bell":7707,
      "chest":7708,
      "amental":7709,
      "Ġfrag":7710,
      "ĠBach":7711,
      "ĠMad":7712,
      "ĠFe":7713,
      "Ġapplications":7714,
      "othing":7715,
      "Ġoccurs":7716,
      "Ġinstance":7717,
      "ĠDefence":7718,
      "igrants":7719,
      "Roger":7720,
      "billion":7721,
      "ĠSong":7722,
      "ifically":7723,
      "ustain":7724,
      "Ġproc":7725,
      "ached":7726,
      "ĠJustice":7727,
      "uschwitz":7728,
      "ashmir":7729,
      "arsen":7730,
      "Ġopposition":7731,
      "ĠBuddhism":7732,
      "ematician":7733,
      "Democr":7734,
      "nz":7735,
      "|#":7736,
      "ãĥ":7737,
      "atar":7738,
      "ĠNature":7739,
      "ĠArgent":7740,
      "technology":7741,
      "Ġdirected":7742,
      "Ġefforts":7743,
      "wstitle":7744,
      "612":7745,
      "711":7746,
      "Government":7747,
      "IG":7748,
      "Mike":7749,
      "ping":7750,
      "Ġoutp":7751,
      "usa":7752,
      "Ġdark":7753,
      "ĠBal":7754,
      "),&":7755,
      "Ġcommission":7756,
      "Ġengineer":7757,
      "Ġexpressed":7758,
      "ennessee":7759,
      "Brian":7760,
      "Ġtend":7761,
      "Ġcut":7762,
      "Ġinside":7763,
      "ĠBureau":7764,
      "lorida":7765,
      "limited":7766,
      "Ġetc":7767,
      "Christopher":7768,
      "Ġserious":7769,
      "ĠTerrit":7770,
      "ĠPolitical":7771,
      "911":7772,
      "Bulgaria":7773,
      "If":7774,
      "TA":7775,
      "gold":7776,
      "lb":7777,
      "oft":7778,
      "sci":7779,
      "uh":7780,
      "ĠEarl":7781,
      "ĠEinstein":7782,
      "Ġwithd":7783,
      "Ġmanuscript":7784,
      "Ġsimply":7785,
      "Ġsolid":7786,
      "Portug":7787,
      "Ġappearance":7788,
      "releases":7789,
      "atellite":7790,
      "rican":7791,
      "tri":7792,
      "uin":7793,
      "ĠAph":7794,
      "irus":7795,
      "ĠField":7796,
      "ĠNov":7797,
      "ĠWeek":7798,
      "epress":7799,
      "ĠKh":7800,
      "339":7801,
      "british":7802,
      "Ġgrowing":7803,
      "blogs":7804,
      "025":7805,
      "323":7806,
      "haps":7807,
      "|[":7808,
      "isemitism":7809,
      "Ġbinary":7810,
      "'']]":7811,
      "ĠSuu":7812,
      "Ġenem":7813,
      "legend":7814,
      "Ġresulted":7815,
      "uzz":7816,
      "Ġmotor":7817,
      "Billboard":7818,
      "Ġcourse":7819,
      "irmed":7820,
      "ĠRem":7821,
      "ĠWars":7822,
      "ĠChristie":7823,
      "ĠBiology":7824,
      "ĠReferences":7825,
      "Ġprinciple":7826,
      "_title":7827,
      "pal":7828,
      "ori":7829,
      "acre":7830,
      "spears":7831,
      "Ġagreed":7832,
      "Ġtranslated":7833,
      "BF":7834,
      "His":7835,
      "care":7836,
      "rics":7837,
      "ych":7838,
      "Ñĭ":7839,
      "Ġsets":7840,
      "udes":7841,
      "255":7842,
      "anna":7843,
      "Ġapparent":7844,
      "Ġarts":7845,
      "Î¿ÏĤ":7846,
      "Ġawarded":7847,
      "Cr":7848,
      "259":7849,
      "oberts":7850,
      "340":7851,
      "topic":7852,
      "ĠSystems":7853,
      "dies":7854,
      "ami":7855,
      "ĠTim":7856,
      "athers":7857,
      "obitu":7858,
      "246":7859,
      "Ġpositions":7860,
      "rett":7861,
      "Ġpossibly":7862,
      "Ġhumidity":7863,
      "Ġofficer":7864,
      "fort":7865,
      "oore":7866,
      "Ġexchange":7867,
      "Ġcontact":7868,
      "'''[[":7869,
      "Ġmeeting":7870,
      "Ġprec":7871,
      "Electron":7872,
      "Canadian":7873,
      "_S":7874,
      "base":7875,
      "rep":7876,
      "ĠWill":7877,
      "early":7878,
      "ĠThus":7879,
      "ademia":7880,
      "Prot":7881,
      "ãĤ":7882,
      "esar":7883,
      "Ġsen":7884,
      "Ġbatter":7885,
      "Ġcerem":7886,
      "ately":7887,
      "Ġmess":7888,
      "Ġhot":7889,
      "idges":7890,
      "Ġkind":7891,
      "Ġprime":7892,
      "ĠAnat":7893,
      "ĠMedical":7894,
      "Ġneut":7895,
      "ĠPalace":7896,
      "sortname":7897,
      "Ġpan":7898,
      "Ġfixed":7899,
      "aders":7900,
      "Organ":7901,
      "France":7902,
      "ĠEdition":7903,
      "Ġhands":7904,
      "Ġfeatured":7905,
      "Amer":7906,
      "direct":7907,
      "len":7908,
      "tour":7909,
      "alon":7910,
      "ĠMethod":7911,
      "ĠUN":7912,
      "ĠSpecial":7913,
      "Ġdefense":7914,
      "ĠPhysics":7915,
      "Ġprotection":7916,
      "break":7917,
      "austral":7918,
      "ĠGh":7919,
      "ĠList":7920,
      "Ġactually":7921,
      "collection":7922,
      "Ġsupply":7923,
      "Ġpolitics":7924,
      "Ġversions":7925,
      "ĠCarolina":7926,
      "....":7927,
      "ĠExp":7928,
      "Ġhelped":7929,
      "Ġfighting":7930,
      "Jun":7931,
      "WP":7932,
      "aring":7933,
      "acle":7934,
      "ĠFred":7935,
      "247":7936,
      "Ġarbit":7937,
      "Ġexplo":7938,
      "|''[[":7939,
      "Ġintroduction":7940,
      "Ġdedicated":7941,
      "Ġran":7942,
      "HO":7943,
      "cus":7944,
      "orial":7945,
      "Ġkilling":7946,
      "Ġlogo":7947,
      "ĠWhat":7948,
      "ĠAllen":7949,
      "Ġoxygen":7950,
      "itzerland":7951,
      "Italian":7952,
      "023":7953,
      "606":7954,
      "Oper":7955,
      "comb":7956,
      "Ġgiving":7957,
      "estant":7958,
      "Ġatoms":7959,
      "Ġleaving":7960,
      "257":7961,
      "258":7962,
      "rows":7963,
      "Ġjoint":7964,
      "Ġsought":7965,
      "NP":7966,
      "Sir":7967,
      "Ġtold":7968,
      "Ġcycl":7969,
      "ĠGal":7970,
      "ĠLove":7971,
      "overs":7972,
      "Ġscale":7973,
      "ĠAfghan":7974,
      "Ġsequence":7975,
      "703":7976,
      "aeological":7977,
      "AQ":7978,
      "Fin":7979,
      "Ottoman":7980,
      "oct":7981,
      "Ġcle":7982,
      "ĠBeg":7983,
      "ĠFree":7984,
      "Ġseek":7985,
      "etting":7986,
      "Prime":7987,
      "Ġequivalent":7988,
      "Ġofficially":7989,
      "Ġopposed":7990,
      "Anthony":7991,
      "Balt":7992,
      "Fort":7993,
      "tto":7994,
      "inces":7995,
      "Ġtoward":7996,
      "ĠOb":7997,
      "ovement":7998,
      "Middle":7999,
      "bible":8000,
      "such":8001,
      "stell":8002,
      "Ġwinter":8003,
      "Ġpush":8004,
      "uller":8005,
      "zech":8006,
      "IPAc":8007,
      "Ġmotion":8008,
      "ĠWallace":8009,
      "317":8010,
      "core":8011,
      "Ġmolec":8012,
      "istered":8013,
      "Ġrecept":8014,
      "ecting":8015,
      "Ġuns":8016,
      "weet":8017,
      "Ġexpected":8018,
      "ĠChristians":8019,
      "Ġcreation":8020,
      "Belarus":8021,
      "Ġpainting":8022,
      "Ġsubsequent":8023,
      "ordeaux":8024,
      "emed":8025,
      "ainst":8026,
      "ervative":8027,
      "Ġlabor":8028,
      "orthy":8029,
      "onesia":8030,
      "ĠSenate":8031,
      "Jonathan":8032,
      "Aberdeen":8033,
      "Hy":8034,
      "military":8035,
      "wing":8036,
      "xx":8037,
      "Ġvs":8038,
      "poses":8039,
      "Ġcommander":8040,
      "ĠPatri":8041,
      "hra":8042,
      "ÅŁ":8043,
      "]]|[[":8044,
      "Ġserve":8045,
      "ĠMiller":8046,
      "rak":8047,
      "Ġstaff":8048,
      "iffer":8049,
      "icholas":8050,
      "portal":8051,
      "telegraph":8052,
      "Ġmeant":8053,
      "Ġrough":8054,
      "Ġcoordin":8055,
      "Ġimportance":8056,
      "Ġsuggests":8057,
      "ĠDesign":8058,
      "Ġid":8059,
      "Ġiron":8060,
      "420":8061,
      "Hill":8062,
      "uate":8063,
      "Ġflag":8064,
      "ĠTom":8065,
      "mathemat":8066,
      "disp":8067,
      "ricket":8068,
      "Ġcomputers":8069,
      "Ġcombination":8070,
      "download":8071,
      "ĠConfeder":8072,
      "Armenia":8073,
      "ĠAhmad":8074,
      "iology":8075,
      "level":8076,
      "Ġpurch":8077,
      "eces":8078,
      "015":8079,
      "SO":8080,
      "theless":8081,
      "Ġsolution":8082,
      "Ġcuisine":8083,
      "roat":8084,
      "Ġconqu":8085,
      "ignore":8086,
      "Ġ75":8087,
      "Ġdecades":8088,
      "Ġyour":8089,
      "ydney":8090,
      "Ġasked":8091,
      "Global":8092,
      "fect":8093,
      "stances":8094,
      "aro":8095,
      "otten":8096,
      "Ġmill":8097,
      "etal":8098,
      "etch":8099,
      "Ġ38":8100,
      "Ġrefused":8101,
      "Ġcapacity":8102,
      "Ġequipment":8103,
      "ĠMinistry":8104,
      "EFA":8105,
      "bas":8106,
      "fall":8107,
      "iser":8108,
      "ĠAdelaide":8109,
      "ĠPacific":8110,
      "ĠFederal":8111,
      "ĠYoung":8112,
      "333":8113,
      "Ġleadership":8114,
      "itchell":8115,
      "Ġexperiment":8116,
      "Ġidentity":8117,
      "ĠSuper":8118,
      "Ġquote":8119,
      "506":8120,
      "Audi":8121,
      "zeb":8122,
      "then":8123,
      "Ġtank":8124,
      "ĠDev":8125,
      "ashion":8126,
      "ographics":8127,
      "Ġclassical":8128,
      "Ġcaptured":8129,
      "oeing":8130,
      "loyment":8131,
      "Ġconnected":8132,
      "Benjamin":8133,
      "release":8134,
      "four":8135,
      "Éª":8136,
      "urb":8137,
      "Ġtalk":8138,
      "Ġcop":8139,
      "unc":8140,
      "Ġgr":8141,
      "ocol":8142,
      "ordan":8143,
      "Ġheight":8144,
      "Ġfactors":8145,
      "Ġangle":8146,
      "osaurus":8147,
      "315":8148,
      "608":8149,
      "reh":8150,
      "Ġbodies":8151,
      "Ġpoly":8152,
      "Ġdig":8153,
      "Comp":8154,
      "Ġclassification":8155,
      "Ġtemple":8156,
      "ĠRoad":8157,
      "609":8158,
      "fc":8159,
      "will":8160,
      "inental":8161,
      "icill":8162,
      "Ġsister":8163,
      "ĠFund":8164,
      "Ġantib":8165,
      "Ġrunning":8166,
      "ĠMormon":8167,
      "Ġvehicles":8168,
      "uncture":8169,
      "Ġavoid":8170,
      "Ã¡Ê¼ÃŃ":8171,
      "burn":8172,
      "oic":8173,
      "ĠDigital":8174,
      "Ġunique":8175,
      "colspan":8176,
      "Ġextrem":8177,
      "Ġpractices":8178,
      "Ġsignificantly":8179,
      "aol":8180,
      "oque":8181,
      "Ġbright":8182,
      "ĠAsp":8183,
      "imm":8184,
      "osm":8185,
      "Ġsubsequently":8186,
      "Les":8187,
      "Small":8188,
      "inoza":8189,
      "Ġinstitutions":8190,
      "ĠSpr":8191,
      "sonian":8192,
      "Ġexpanded":8193,
      "Ġsomething":8194,
      "Ġinterview":8195,
      "ĠDeath":8196,
      "Archive":8197,
      "ĠVirginia":8198,
      "Ġaster":8199,
      "lobe":8200,
      "rawn":8201,
      "Ġconvent":8202,
      "Ġraised":8203,
      "Space":8204,
      "ĠCommand":8205,
      "Aster":8206,
      "Post":8207,
      "Sur":8208,
      "urang":8209,
      "Ġwall":8210,
      "Ġsquare":8211,
      "Ġfeed":8212,
      "acial":8213,
      "lained":8214,
      "ido":8215,
      "Ġfollows":8216,
      "Ġdifferences":8217,
      "Ġmodule":8218,
      "iscopal":8219,
      "Circ":8220,
      "rm":8221,
      "Ġpowers":8222,
      "uni":8223,
      "Ġlic":8224,
      "ĠDespite":8225,
      "tert":8226,
      "Ġones":8227,
      "udget":8228,
      "uced":8229,
      "ahman":8230,
      "706":8231,
      "Ba":8232,
      "Barn":8233,
      "ylo":8234,
      "ardot":8235,
      "ĠAlso":8236,
      "eyer":8237,
      "Ġtraditions":8238,
      "Ġpowerful":8239,
      "Portal":8240,
      ";|[[":8241,
      "idepress":8242,
      "ĠTuring":8243,
      "ologists":8244,
      "Ġacids":8245,
      "Star":8246,
      "atting":8247,
      "Ġfinally":8248,
      "senic":8249,
      "ĠAjax":8250,
      "Ġframe":8251,
      "Aston":8252,
      "inosaur":8253,
      "Ġparliament":8254,
      "eard":8255,
      "Ġabortion":8256,
      "Ġ64":8257,
      "Ġcancer":8258,
      "ĠIndependent":8259,
      "Ġcauses":8260,
      "Ġhydrogen":8261,
      "ĠBaltic":8262,
      "Alexandra":8263,
      "Best":8264,
      "yles":8265,
      "ĠApost":8266,
      "iler":8267,
      "Ġmerg":8268,
      "ourney":8269,
      "Ġstra":8270,
      "ĠLev":8271,
      "ardo":8272,
      "exican":8273,
      "ieg":8274,
      "ega":8275,
      "egative":8276,
      "Ġ41":8277,
      "ymology":8278,
      "Ġformal":8279,
      "leton":8280,
      "ĠExternal":8281,
      "Ġmedieval":8282,
      "ĠBelize":8283,
      "iquity":8284,
      "Ġprefer":8285,
      "Ġarrived":8286,
      "cropped":8287,
      "drug":8288,
      "Î¯":8289,
      "asan":8290,
      "Ġfell":8291,
      "Ġmut":8292,
      "Ġhy":8293,
      "ĠArthur":8294,
      "ussia":8295,
      "Ġpopulations":8296,
      "India":8297,
      "Ġshowed":8298,
      "ynamic":8299,
      "ĠSwedish":8300,
      "Most":8301,
      "Out":8302,
      "Part":8303,
      "ei":8304,
      "tic":8305,
      "Î·":8306,
      "Ġop":8307,
      "Ġwave":8308,
      "ĠAG":8309,
      "ĠSa":8310,
      "uten":8311,
      "common":8312,
      "former":8313,
      "orning":8314,
      "Char":8315,
      "Ġ51":8316,
      "etters":8317,
      "ĠEvolution":8318,
      "(\\":8319,
      "701":8320,
      "Iran":8321,
      "smith":8322,
      "Ġways":8323,
      "user":8324,
      "ĠSir":8325,
      "Ġstor":8326,
      "ĠLos":8327,
      "ĠUk":8328,
      "ĠVietnam":8329,
      "Alg":8330,
      "neth":8331,
      "Ġassoci":8332,
      "Ġdecor":8333,
      "Ġstarting":8334,
      "ĠAMD":8335,
      "Ġancest":8336,
      "Hay":8337,
      "SE":8338,
      "ĠMission":8339,
      "Ġ44":8340,
      "Ġanalog":8341,
      "705":8342,
      "Ð±":8343,
      "Ġthrone":8344,
      "aga":8345,
      "ĠMyth":8346,
      "Ġrecomm":8347,
      "eca":8348,
      "anga":8349,
      "Ġantim":8350,
      "Ġchain":8351,
      "letter":8352,
      "ĠCoast":8353,
      "ĠPoland":8354,
      "Ġdevices":8355,
      "Ġdialect":8356,
      "ibliography":8357,
      ":{{":8358,
      "Az":8359,
      "BE":8360,
      "Des":8361,
      "Text":8362,
      "mine":8363,
      "lton":8364,
      "illy":8365,
      "Ġreduce":8366,
      "ĠHandbook":8367,
      "astro":8368,
      "ĠUnivers":8369,
      "Ġattention":8370,
      "netic":8371,
      "putation":8372,
      "Ġencour":8373,
      "Paris":8374,
      "quency":8375,
      "idae":8376,
      "rika":8377,
      "ĠEc":8378,
      "owski":8379,
      "polis":8380,
      "ÑĢÐ°":8381,
      "Ġdomestic":8382,
      "Bla":8383,
      "Rol":8384,
      "aac":8385,
      "bah":8386,
      "camp":8387,
      "gers":8388,
      "mu":8389,
      "Ġbaptism":8390,
      "Ġstories":8391,
      "ruit":8392,
      "Ġshared":8393,
      "arrier":8394,
      "Ġcorrect":8395,
      "Ġwrite":8396,
      "Gr":8397,
      "Johann":8398,
      "NY":8399,
      "Ven":8400,
      "_i":8401,
      "also":8402,
      "Ġawards":8403,
      "ĠAz":8404,
      "Ġmaxim":8405,
      "uma":8406,
      "ĠPennsylvania":8407,
      "ĠNFL":8408,
      "ĠLittle":8409,
      "ĠOs":8410,
      "aptists":8411,
      "Ġscreenwriter":8412,
      "ĠFrancisco":8413,
      "ellectual":8414,
      "=%":8415,
      "Ro":8416,
      "fire":8417,
      "nation":8418,
      "Ġdies":8419,
      "ĠMy":8420,
      "ĠGood":8421,
      "Ġviews":8422,
      "Ġ42":8423,
      "Ġ165":8424,
      "Ġintelligence":8425,
      "Afghanistan":8426,
      "pective":8427,
      "anas":8428,
      "icist":8429,
      "Ġamin":8430,
      "âĢĵpresent":8431,
      "ifer":8432,
      "Ġspacecraft":8433,
      "icrobial":8434,
      "Ġruns":8435,
      "Anglican":8436,
      "Ġmoving":8437,
      "ĠTestament":8438,
      "Ġprotein":8439,
      "Ġimmediately":8440,
      "Georg":8441,
      "alled":8442,
      "Ġsons":8443,
      "Ġdiplomatic":8444,
      "ĠHindu":8445,
      "Ġchalleng":8446,
      "248":8447,
      "event":8448,
      "Ġ49":8449,
      "Although":8450,
      "ĠSpirit":8451,
      "ĠConstitution":8452,
      "Death":8453,
      "ESCO":8454,
      "utheran":8455,
      "Ġbehavior":8456,
      "Ern":8457,
      "before":8458,
      "cap":8459,
      "two":8460,
      "idency":8461,
      "ripp":8462,
      "ĠNotes":8463,
      "phere":8464,
      "ifications":8465,
      "Ġoverall":8466,
      "ĠWho":8467,
      "Ġmonast":8468,
      "Ġissued":8469,
      "relations":8470,
      "Ġlands":8471,
      "ĠBrandenburg":8472,
      "washingtonpost":8473,
      "Ol":8474,
      "joy":8475,
      "nership":8476,
      "alex":8477,
      "Ġstress":8478,
      "aved":8479,
      "Ġ}}.":8480,
      "ĠCompan":8481,
      "ĠPolitics":8482,
      "Ġly":8483,
      "322":8484,
      "Os":8485,
      "nom":8486,
      "itis":8487,
      "rogen":8488,
      "unter":8489,
      "ĠMat":8490,
      "sson":8491,
      "eful":8492,
      "Ġrival":8493,
      "ĠEngineering":8494,
      "Ari":8495,
      "Il":8496,
      "capital":8497,
      "het":8498,
      "Ġbow":8499,
      "ĠMaria":8500,
      "Ġalone":8501,
      "Ġshot":8502,
      "236":8503,
      "Ġarrest":8504,
      "electron":8505,
      "Ġlearning":8506,
      "707":8507,
      "AI":8508,
      "Military":8509,
      "front":8510,
      "icus":8511,
      "Ġtry":8512,
      "ĠCam":8513,
      "Ġec":8514,
      "ĠLtd":8515,
      "082":8516,
      "boardgame":8517,
      "Ġcompletely":8518,
      "ĠBarbuda":8519,
      "bd":8520,
      "ĠSons":8521,
      "elson":8522,
      "ubble":8523,
      "akers":8524,
      "ounger":8525,
      "Ġdisp":8526,
      "Ġgoal":8527,
      "Ġpurpose":8528,
      "zhen":8529,
      "Up":8530,
      "fit":8531,
      "Ð³":8532,
      "isot":8533,
      "ĠSar":8534,
      "Ġvirt":8535,
      "Ġrich":8536,
      "Ġleave":8537,
      "Ġnote":8538,
      "Ġprep":8539,
      "Project":8540,
      "Ġdeliver":8541,
      "Ġnormal":8542,
      "Lat":8543,
      "Ġmouth":8544,
      "artist":8545,
      "ocation":8546,
      "Ġdefeat":8547,
      "Ġsurrounding":8548,
      "Pierre":8549,
      "Social":8550,
      "mus":8551,
      "icians":8552,
      "Ġcrop":8553,
      "Ġhab":8554,
      "ĠSel":8555,
      "antic":8556,
      "defin":8557,
      "ĠAristotle":8558,
      "Ġ65":8559,
      "Common":8560,
      "volt":8561,
      "Ġfields":8562,
      "Ċĉ":8563,
      "027":8564,
      "909":8565,
      "Federal":8566,
      "_B":8567,
      "ĠABC":8568,
      "Ġfiction":8569,
      "agle":8570,
      "adi":8571,
      "ĠDar":8572,
      "ĠNeur":8573,
      "anged":8574,
      "ĠTransport":8575,
      "upuncture":8576,
      "Ġ39":8577,
      "Ġactions":8578,
      "ĠSurvey":8579,
      "Ġdetermined":8580,
      "=-":8581,
      "family":8582,
      "Ġtit":8583,
      "ĠDNA":8584,
      "Ġproport":8585,
      "Ġshape":8586,
      "poss":8587,
      "Ã¨re":8588,
      "ĠMichigan":8589,
      "Ġinhabit":8590,
      "Ġquot":8591,
      "Aug":8592,
      "elian":8593,
      "ĠDem":8594,
      "Chapter":8595,
      "Ġdiscovery":8596,
      "Ġplanned":8597,
      "Origin":8598,
      "unting":8599,
      "Ġdialects":8600,
      "âĢĻs":8601,
      "Ġinspired":8602,
      "508":8603,
      "iast":8604,
      "ĠFort":8605,
      "odium":8606,
      "anging":8607,
      "force":8608,
      "awn":8609,
      "ĠâĪ":8610,
      "ĠQuarter":8611,
      "Ġtrees":8612,
      "540":8613,
      "tl":8614,
      "itarian":8615,
      "urer":8616,
      "ĠJun":8617,
      "Ġauthors":8618,
      "Ġdifference":8619,
      "Ġlisted":8620,
      "remier":8621,
      "Ġcombat":8622,
      "Ġpredecess":8623,
      "ĠChemical":8624,
      "including":8625,
      "Ġprice":8626,
      "ascal":8627,
      "ĠRail":8628,
      "Ġstone":8629,
      "Ġseat":8630,
      "Ġagriculture":8631,
      "argin":8632,
      "Ġorders":8633,
      "Steve":8634,
      "Historical":8635,
      "Ġcandidate":8636,
      "704":8637,
      "mund":8638,
      "special":8639,
      "ĠAli":8640,
      "ĠConn":8641,
      "Ġweak":8642,
      "Ġinstruments":8643,
      "%,":8644,
      "Anal":8645,
      "Gl":8646,
      "Ron":8647,
      "jsp":8648,
      "Ġaudi":8649,
      "Ġwinning":8650,
      "Ġfast":8651,
      "essment":8652,
      "Ġgained":8653,
      "ĠNobel":8654,
      "abilities":8655,
      "Ġorb":8656,
      "oba":8657,
      "Ġunderstanding":8658,
      "zero":8659,
      "ossil":8660,
      "Philipp":8661,
      "Ġdrive":8662,
      "Ġadministrative":8663,
      "Ġtribes":8664,
      "Astron":8665,
      "Mass":8666,
      "Parliament":8667,
      "_D":8668,
      "eo":8669,
      "aran":8670,
      "Ġcopy":8671,
      "ĠNative":8672,
      "Ġdescent":8673,
      "Ġquality":8674,
      "Ġpredict":8675,
      "Official":8676,
      "ĠDenmark":8677,
      "018":8678,
      "aer":8679,
      "brown":8680,
      "reuters":8681,
      "ĠHome":8682,
      "earth":8683,
      "ĠStone":8684,
      "Ġ48":8685,
      "Ġplans":8686,
      "Ġmonarch":8687,
      "Ġwhereas":8688,
      "strong":8689,
      "Ġpossess":8690,
      "Ġbusinessman":8691,
      "Buffalo":8692,
      "clade":8693,
      "ners":8694,
      "sum":8695,
      "incess":8696,
      "Ġdensity":8697,
      "ĠStadium":8698,
      "Ġdiscip":8699,
      "etti":8700,
      "ĠAirways":8701,
      "Israel":8702,
      "Ġtechnique":8703,
      "Ġruled":8704,
      "Ġclosely":8705,
      "riedrich":8706,
      "icillin":8707,
      "017":8708,
      "Pri":8709,
      "Ãł":8710,
      "stra":8711,
      "Ġweeks":8712,
      "ĠPe":8713,
      "Ġstay":8714,
      "ugg":8715,
      "ikos":8716,
      "Ġring":8717,
      "Ġshoot":8718,
      "Ġdisorder":8719,
      "Ġaccur":8720,
      "ÑģÐº":8721,
      "Ġcovered":8722,
      "Ġpolice":8723,
      "?&":8724,
      "Tele":8725,
      "flo":8726,
      "oni":8727,
      "Ġinher":8728,
      "ĠAB":8729,
      "ĠMos":8730,
      "Ġvalign":8731,
      "brand":8732,
      "337":8733,
      "Ġextra":8734,
      "Ġsoldier":8735,
      "ĠAlbanian":8736,
      "annotated":8737,
      "arctic":8738,
      "mythology":8739,
      "Foreign":8740,
      "Qaeda":8741,
      "sn":8742,
      "atus":8743,
      "ĠAra":8744,
      "ĠSign":8745,
      "Ġrein":8746,
      "avian":8747,
      "enson":8748,
      "minster":8749,
      "Ġphase":8750,
      "Ġmetals":8751,
      "Ð¾Ð²":8752,
      "ruption":8753,
      "Ġdamage":8754,
      "Free":8755,
      "Open":8756,
      "hes":8757,
      "entially":8758,
      "Ġmind":8759,
      "ĠCrow":8760,
      "ĠBecause":8761,
      "Ġgrew":8762,
      "Ġbegin":8763,
      "Ġexplor":8764,
      "countries":8765,
      "Ġdescribe":8766,
      "laws":8767,
      "dp":8768,
      "nas":8769,
      "Ø¨":8770,
      "Ġaid":8771,
      "ĠCrosby":8772,
      "Ġearn":8773,
      "ishing":8774,
      "ĠText":8775,
      "Ġatmosph":8776,
      "Ġexc":8777,
      "evin":8778,
      "Ġago":8779,
      "Ġgeneration":8780,
      "ĠPhys":8781,
      "ĠTurkish":8782,
      "Ġmountain":8783,
      ";-":8784,
      "Botswana":8785,
      "Ġincome":8786,
      "Ġnuclear":8787,
      "ĠBall":8788,
      "ceived":8789,
      "iable":8790,
      "ĠFollowing":8791,
      "ovsky":8792,
      "ronze":8793,
      "092":8794,
      "450":8795,
      "Ġsuppl":8796,
      "ĠAmiga":8797,
      "ĠPrime":8798,
      "Ġminutes":8799,
      "rayer":8800,
      "Ġpresidential":8801,
      "Atlantic":8802,
      "hall":8803,
      "iary":8804,
      "ÃĹ":8805,
      "emoir":8806,
      "phot":8807,
      "africa":8808,
      "itsyn":8809,
      "AAAAI":8810,
      "Land":8811,
      "ĠAug":8812,
      "ĠLast":8813,
      "unday":8814,
      "ĠVI":8815,
      "ensis":8816,
      "acher":8817,
      "Ġimages":8818,
      "mont":8819,
      "Ġparam":8820,
      "Ġinvestig":8821,
      "openhauer":8822,
      "DB":8823,
      "HT":8824,
      "wall":8825,
      "asure":8826,
      "olph":8827,
      "Ġopportun":8828,
      "Transl":8829,
      "Ġque":8830,
      "Ach":8831,
      "Will":8832,
      "card":8833,
      "dl":8834,
      "Ġthink":8835,
      "Ġpoll":8836,
      "launch":8837,
      "ĠST":8838,
      "igma":8839,
      "etry":8840,
      "appro":8841,
      "prise":8842,
      "olumn":8843,
      "ciation":8844,
      "359":8845,
      "crete":8846,
      "332":8847,
      "Ġenter":8848,
      "Ġswitch":8849,
      "econom":8850,
      "Ġconducted":8851,
      "Karl":8852,
      "greg":8853,
      "itabh":8854,
      "ĠAudi":8855,
      "Ġdigital":8856,
      "irl":8857,
      "ĠRavens":8858,
      "Ġvillage":8859,
      "ĠInternet":8860,
      "pert":8861,
      "Ġseats":8862,
      "Chris":8863,
      "ĠSpec":8864,
      "Ġstudied":8865,
      "ulletin":8866,
      ";'''":8867,
      "Jud":8868,
      "Since":8869,
      "Tem":8870,
      "Ġsynthesis":8871,
      "lains":8872,
      "ucl":8873,
      "aren":8874,
      "onder":8875,
      "Ġdestroyed":8876,
      "End":8877,
      "onom":8878,
      "Ġbrand":8879,
      "elist":8880,
      "ĠDrug":8881,
      "ĠFar":8882,
      "arriage":8883,
      "ĠKorea":8884,
      "611":8885,
      "OP":8886,
      "iÄĩ":8887,
      "itan":8888,
      "Ġsom":8889,
      "images":8890,
      "ersion":8891,
      "oose":8892,
      "268":8893,
      "Ġplatform":8894,
      "production":8895,
      "Ġwealth":8896,
      "ĠEdward":8897,
      "Ġparallel":8898,
      "AAAAMAAJ":8899,
      "bourne":8900,
      "clusive":8901,
      "oscow":8902,
      "civil":8903,
      "hav":8904,
      "map":8905,
      "sal":8906,
      "sis":8907,
      "enos":8908,
      "Ġcateg":8909,
      "ĠBirth":8910,
      "ĠMicro":8911,
      "Ġcurrently":8912,
      "Ġscientists":8913,
      "CL":8914,
      "su":8915,
      "ÅĤ":8916,
      "ando":8917,
      "Ġfuel":8918,
      "ateur":8919,
      "ilarly":8920,
      "Ġisol":8921,
      "ĠLunar":8922,
      "ĠWater":8923,
      "Ġcompound":8924,
      "ribed":8925,
      "insula":8926,
      "legal":8927,
      "Ġopening":8928,
      "Ġsaying":8929,
      "millan":8930,
      "Ġslightly":8931,
      "318":8932,
      "Bu":8933,
      "oler":8934,
      "roth":8935,
      "ĠSports":8936,
      "Ġatomic":8937,
      "astie":8938,
      "elles":8939,
      "others":8940,
      "Ġreports":8941,
      "Ġcolonies":8942,
      "314":8943,
      "Atext":8944,
      "Kar":8945,
      "_P":8946,
      "far":8947,
      "iny":8948,
      "ĠCultural":8949,
      "Ġpropos":8950,
      "Ġproved":8951,
      "ernative":8952,
      "ricts":8953,
      "Ġabandon":8954,
      "275":8955,
      "351":8956,
      "Ġskin":8957,
      "zhenitsyn":8958,
      "chen":8959,
      "ĠPeace":8960,
      "Ġlif":8961,
      "Ġstatue":8962,
      "Ġvisited":8963,
      "Ġcausing":8964,
      "casting":8965,
      "Tony":8966,
      "lig":8967,
      "nih":8968,
      "acement":8969,
      "ĠWay":8970,
      "Ġvoice":8971,
      "Ġcomponents":8972,
      "Ġassault":8973,
      "Ġdepart":8974,
      "Ġdriver":8975,
      "Columbia":8976,
      "tree":8977,
      "isd":8978,
      "illo":8979,
      "Ġmultip":8980,
      "Ġ('":8981,
      "ĠGrant":8982,
      "ĠNY":8983,
      "ĠLim":8984,
      "udson":8985,
      "ovo":8986,
      "072":8987,
      "Ġstatement":8988,
      "ĠArtemis":8989,
      "Ġreceive":8990,
      "ĠSupreme":8991,
      "Ġmissions":8992,
      "Italy":8993,
      "Bal":8994,
      "Four":8995,
      "cur":8996,
      "lich":8997,
      "ĠImp":8998,
      "ĠNic":8999,
      "ictures":9000,
      "Ġappeal":9001,
      "Ġwritings":9002,
      "Princip":9003,
      "Ġsecondary":9004,
      "Ġrespond":9005,
      "Ġcomposition":9006,
      "Ġattempted":9007,
      "Ġwanted":9008,
      ";|{{":9009,
      "VI":9010,
      "hof":9011,
      "kara":9012,
      "yram":9013,
      "orst":9014,
      "icy":9015,
      "aching":9016,
      "Ġplate":9017,
      "othy":9018,
      "ĠSchwarzenegger":9019,
      "ĠMedieval":9020,
      "Brill":9021,
      "Ġholding":9022,
      "Frederick":9023,
      "Ġcitizens":9024,
      "ĠAdministration":9025,
      "Shar":9026,
      "Ġpurs":9027,
      "Ġexecut":9028,
      "linois":9029,
      "forc":9030,
      "Ġaccord":9031,
      "Elizabeth":9032,
      "analysis":9033,
      "Lord":9034,
      "TC":9035,
      "inburgh":9036,
      "chi":9037,
      "Ġglass":9038,
      "reeks":9039,
      "Ġkept":9040,
      "Ġ43":9041,
      "331":9042,
      "urns":9043,
      "Ġstudent":9044,
      "pression":9045,
      "Germany":9046,
      "ĠServices":9047,
      "Ġtherapy":9048,
      "ĠWilson":9049,
      "AWB":9050,
      "/#":9051,
      "Austin":9052,
      "Et":9053,
      "Moh":9054,
      "dat":9055,
      "Ð¹":9056,
      "Ġsil":9057,
      "Ġmilit":9058,
      "ĠHitchcock":9059,
      "Ġjur":9060,
      "meth":9061,
      "Ġbuzz":9062,
      "Ġchemistry":9063,
      "Ġabsor":9064,
      "ĠMassachusetts":9065,
      "ĠMontgomery":9066,
      "Ġsituation":9067,
      "DR":9068,
      "aedia":9069,
      "lia":9070,
      "comes":9071,
      "ĠRand":9072,
      "Ġliber":9073,
      "ĠThree":9074,
      "387":9075,
      "Ġvisit":9076,
      "Ġconcentration":9077,
      "Ġguitarist":9078,
      "316":9079,
      "767":9080,
      "Gre":9081,
      "aic":9082,
      "hom":9083,
      "oil":9084,
      "Ñĩ":9085,
      "omorph":9086,
      "''[[":9087,
      "umn":9088,
      "Ġexternal":9089,
      "enses":9090,
      "aze":9091,
      "Chinese":9092,
      "ieri":9093,
      "enguin":9094,
      "Academy":9095,
      "Ġfactor":9096,
      "Ġstandards":9097,
      "Ġportray":9098,
      "Ġeffort":9099,
      "iplomat":9100,
      "Ġsteel":9101,
      "Ġphenomen":9102,
      "Mil":9103,
      "sted":9104,
      "itts":9105,
      "Ġhockey":9106,
      "istant":9107,
      "oster":9108,
      "Ġattend":9109,
      "ĠPract":9110,
      "Ġsettled":9111,
      "Byzantine":9112,
      "lapsed":9113,
      "lapse":9114,
      "AU":9115,
      "Library":9116,
      "jud":9117,
      "Ġbad":9118,
      "Ġbishops":9119,
      "Ġnarr":9120,
      "ĠHy":9121,
      "ĠHebrew":9122,
      "277":9123,
      "Ġ55":9124,
      "ennial":9125,
      "Ġdescribes":9126,
      "onymous":9127,
      "Vol":9128,
      "ÑĮ":9129,
      "oli":9130,
      "ĠIll":9131,
      "ĠWood":9132,
      "Ġagricultural":9133,
      "355":9134,
      "Ġcontrolled":9135,
      "ĠClimate":9136,
      "oenix":9137,
      "Ġ.":9138,
      "ĠØ§ÙĦ":9139,
      "Ġaer":9140,
      "Theod":9141,
      "Ġrates":9142,
      "Ġusers":9143,
      "299":9144,
      "Ġapplication":9145,
      "341":9146,
      "ĠShort":9147,
      "Ġextreme":9148,
      "urosawa":9149,
      "Bry":9150,
      "NE":9151,
      "Rem":9152,
      "Sec":9153,
      "park":9154,
      "icks":9155,
      "omn":9156,
      "ĠIraq":9157,
      "arta":9158,
      "endi":9159,
      "ulty":9160,
      "Ã©n":9161,
      "ĠConstantinople":9162,
      "Ġspecifically":9163,
      "ĠCentauri":9164,
      "ipped":9165,
      "ĠCaribbean":9166,
      "ĠBahamas":9167,
      "Sen":9168,
      "Under":9169,
      "daily":9170,
      "eign":9171,
      "john":9172,
      "rust":9173,
      "oring":9174,
      "Ġbone":9175,
      "acon":9176,
      "Ġmixed":9177,
      "etime":9178,
      "ĠHot":9179,
      "terbury":9180,
      "ĠFle":9181,
      "ĠLake":9182,
      "issions":9183,
      "plate":9184,
      "Ġroute":9185,
      "Ġworkers":9186,
      "player":9187,
      "While":9188,
      "Ġtypical":9189,
      "Ġtrial":9190,
      "326":9191,
      "Aarhus":9192,
      "ION":9193,
      "san":9194,
      "oric":9195,
      "urder":9196,
      "Ġmort":9197,
      "ĠBarn":9198,
      "phal":9199,
      "licit":9200,
      "287":9201,
      "ĠProfess":9202,
      "Russia":9203,
      "Ġspeakers":9204,
      "cbignore":9205,
      "But":9206,
      "Ext":9207,
      "Maria":9208,
      "Wall":9209,
      "rot":9210,
      "sol":9211,
      "tion":9212,
      "inations":9213,
      "rei":9214,
      "stro":9215,
      "stock":9216,
      "alks":9217,
      "enter":9218,
      "orton":9219,
      "itionally":9220,
      "ĠThrough":9221,
      "Ark":9222,
      "Ġburied":9223,
      "Ġfailure":9224,
      "Mount":9225,
      "court":9226,
      "Ãª":9227,
      "ÏĮ":9228,
      "Ġpeak":9229,
      "ĠBla":9230,
      "ĠEst":9231,
      "conf":9232,
      "cious":9233,
      "265":9234,
      "356":9235,
      "Ġstatistics":9236,
      "Ġachieved":9237,
      "CNN":9238,
      "Ġcompetition":9239,
      "Ġsorting":9240,
      "urangzeb":9241,
      "Business":9242,
      "CII":9243,
      "Éĳ":9244,
      "ĠArea":9245,
      "Ġfolk":9246,
      "'']":9247,
      "odhis":9248,
      "ĠNation":9249,
      "ĠLewis":9250,
      "062":9251,
      "Ġformat":9252,
      "Ġsubstant":9253,
      "keley":9254,
      "ĠAdam":9255,
      "ĠAbraham":9256,
      "clusion":9257,
      "Harvard":9258,
      "Ġdrugs":9259,
      "rystal":9260,
      "Max":9261,
      "à¸":9262,
      "anton":9263,
      "266":9264,
      "Ġphr":9265,
      "Ġadvanced":9266,
      "rastructure":9267,
      "ĠBarbados":9268,
      "Ġgoddess":9269,
      "Many":9270,
      "bic":9271,
      "fac":9272,
      "flow":9273,
      "social":9274,
      "itus":9275,
      "ĠLog":9276,
      "abol":9277,
      "Ġperman":9278,
      "336":9279,
      "Ġartillery":9280,
      "Ġpatients":9281,
      "Ġpopularity":9282,
      "Ġcrash":9283,
      "Ġrailway":9284,
      "abinet":9285,
      "024":9286,
      "335":9287,
      "mass":9288,
      "inction":9289,
      "Ġblues":9290,
      "acus":9291,
      "Ġrugby":9292,
      "insberg":9293,
      "Ġdescend":9294,
      "Ġworldwide":9295,
      "Ġinfluential":9296,
      "Ġadvoc":9297,
      "ĠRecord":9298,
      "BMW":9299,
      "Samuel":9300,
      "ĠAshoka":9301,
      "Ġphotograph":9302,
      "movies":9303,
      "IBM":9304,
      "Tra":9305,
      "apr":9306,
      "angle":9307,
      "estine":9308,
      "annon":9309,
      "ĠOrange":9310,
      "Amsterdam":9311,
      "atherine":9312,
      "warhol":9313,
      "Ġalongside":9314,
      "ĠIntelligence":9315,
      "political":9316,
      "Armenian":9317,
      "ĠFaith":9318,
      "Tri":9319,
      "dig":9320,
      "txt":9321,
      "||[[":9322,
      "ativity":9323,
      "ĠHerald":9324,
      "abil":9325,
      "Ġwhy":9326,
      "ĠArbor":9327,
      "Ã¼n":9328,
      "artyr":9329,
      "rell":9330,
      "Ġdemocr":9331,
      "Ġgoing":9332,
      "Decrease":9333,
      ").{{":9334,
      "Gh":9335,
      "oC":9336,
      "wen":9337,
      "zi":9338,
      "ĠMemorial":9339,
      "ĠRam":9340,
      "ĠLight":9341,
      "274":9342,
      "349":9343,
      "Collins":9344,
      "Ġsufficient":9345,
      "Ġsucceeded":9346,
      "EncyclopÃ¦dia":9347,
      "Bruce":9348,
      "Natural":9349,
      "nor":9350,
      "s_":9351,
      "wr":9352,
      "Ġbreed":9353,
      "ĠRun":9354,
      "owell":9355,
      "Ġuseful":9356,
      "ĠAlan":9357,
      "Ġpoem":9358,
      "ĠCollection":9359,
      "Ġcolonial":9360,
      "allenge":9361,
      "yllium":9362,
      "))":9363,
      ";).":9364,
      "pect":9365,
      "rations":9366,
      "Ð·":9367,
      "inite":9368,
      "atomy":9369,
      "Ġpra":9370,
      "Ġfair":9371,
      "Ġmult":9372,
      "Ġmyst":9373,
      "admin":9374,
      "season":9375,
      "]].]]":9376,
      "Princeton":9377,
      "ĠCardinals":9378,
      "Ġobtained":9379,
      "Ġweapons":9380,
      "odhisatt":9381,
      "She":9382,
      "biz":9383,
      "carbon":9384,
      "sym":9385,
      "Ð¿":9386,
      "leve":9387,
      "icts":9388,
      "Ġsan":9389,
      "ĠAqu":9390,
      "ĠBot":9391,
      "Ġconference":9392,
      "Stud":9393,
      "Ġsurvey":9394,
      "ĠUSA":9395,
      "Ġtempor":9396,
      "Ram":9397,
      "gg":9398,
      "Ġfestival":9399,
      "ĠCapital":9400,
      "ĠBills":9401,
      "linton":9402,
      "atters":9403,
      "Ġprepar":9404,
      "ĠExt":9405,
      "office":9406,
      "Ð°ÑĢ":9407,
      "school":9408,
      "ĠMcC":9409,
      "Ġzone":9410,
      "ĠWorks":9411,
      "Ġentirely":9412,
      "327":9413,
      "859":9414,
      "Election":9415,
      "hism":9416,
      "hind":9417,
      "anchor":9418,
      "andel":9419,
      "ĠDur":9420,
      "shall":9421,
      "Ġseems":9422,
      "444":9423,
      "presents":9424,
      "espread":9425,
      "standard":9426,
      "Ġtemperatures":9427,
      "Ġincreasingly":9428,
      "ouston":9429,
      "ayyaf":9430,
      ")]":9431,
      "324":9432,
      "Fre":9433,
      "UP":9434,
      "hop":9435,
      "amma":9436,
      "ĠBor":9437,
      "adia":9438,
      "ĠStock":9439,
      "Ġsplit":9440,
      "ĠAlbum":9441,
      "Ġarmed":9442,
      "Ġ166":9443,
      "ĠAgriculture":9444,
      "Ġastronauts":9445,
      "Ġhouses":9446,
      "+&":9447,
      "Year":9448,
      "learn":9449,
      "Ġsides":9450,
      "ĠMathematics":9451,
      "ĠId":9452,
      "ecution":9453,
      "phib":9454,
      "akhar":9455,
      "Ġsubdivision":9456,
      "Ġquarter":9457,
      "blem":9458,
      "company":9459,
      "Ġimproved":9460,
      "Ġrecently":9461,
      "Ġconverted":9462,
      "PDF":9463,
      "body":9464,
      "andal":9465,
      "ĠAL":9466,
      "Ġfreedom":9467,
      "ropos":9468,
      "ĠCy":9469,
      "ĠIss":9470,
      "odd":9471,
      "Ġimperial":9472,
      "267":9473,
      "273":9474,
      "Computer":9475,
      "liver":9476,
      "Why":9477,
      "Ġregarding":9478,
      "Of":9479,
      "category":9480,
      "hq":9481,
      "reports":9482,
      "itter":9483,
      "esa":9484,
      "idn":9485,
      "ĠCirc":9486,
      "Ġliqu":9487,
      "Ġasc":9488,
      "ptoms":9489,
      "Ġ47":9490,
      "ĠConvention":9491,
      "Ġ164":9492,
      "ĠAppro":9493,
      "Flagicon":9494,
      "ĠAbbey":9495,
      "range":9496,
      "Ġmach":9497,
      "iration":9498,
      "Ġreasons":9499,
      "]],{{":9500,
      "ĠStaff":9501,
      "ieuten":9502,
      "Ġnotably":9503,
      "ighth":9504,
      "440":9505,
      "letch":9506,
      "ropical":9507,
      "Ġtried":9508,
      "arcel":9509,
      "Ġparents":9510,
      "Democratic":9511,
      "Ġil":9512,
      "multiref":9513,
      "Ø¯":9514,
      "amation":9515,
      "Ġsales":9516,
      "eby":9517,
      "ĠSil":9518,
      "ĠHard":9519,
      "ĠGovernor":9520,
      "ĠJersey":9521,
      "iful":9522,
      "Ġprojects":9523,
      "elli":9524,
      "Steven":9525,
      "Ġplane":9526,
      "Ġfounder":9527,
      "america":9528,
      "Ġteaching":9529,
      "*''[[":9530,
      "alingrad":9531,
      "Ġinhabitants":9532,
      "414":9533,
      "432":9534,
      "Del":9535,
      "Hugh":9536,
      "mg":9537,
      "yz":9538,
      "á½":9539,
      "erb":9540,
      "atson":9541,
      "leep":9542,
      "edron":9543,
      "Ġcycle":9544,
      "ĠSabbath":9545,
      "ĠEach":9546,
      "Ġgram":9547,
      "apole":9548,
      ";|&":9549,
      "334":9550,
      "342":9551,
      "Ġdefend":9552,
      "Add":9553,
      "iblio":9554,
      "Ġheavily":9555,
      "ĠÊ":9556,
      "344":9557,
      "Form":9558,
      "Hall":9559,
      "father":9560,
      "grad":9561,
      "weg":9562,
      "Î³":9563,
      "ĠCorn":9564,
      "ĠBraves":9565,
      "ĠPolicy":9566,
      "ĠDie":9567,
      "Ġcollabor":9568,
      "Dead":9569,
      "Ġprocesses":9570,
      "ĠHungary":9571,
      "Ġfleet":9572,
      "ĠBavaria":9573,
      "nfl":9574,
      "uri":9575,
      "Ġpack":9576,
      "vement":9577,
      "loff":9578,
      "ulating":9579,
      "aki":9580,
      "ĠStation":9581,
      "asters":9582,
      "berty":9583,
      "Ġfeel":9584,
      "ilosophical":9585,
      "Head":9586,
      "ĠÃĹ":9587,
      "325":9588,
      "GS":9589,
      "Pos":9590,
      "Two":9591,
      "uj":9592,
      "Ġworship":9593,
      "Ġsynth":9594,
      "ĠDies":9595,
      "ĠGriff":9596,
      "Ġheat":9597,
      "033":9598,
      "283":9599,
      "343":9600,
      "ĠAntigua":9601,
      "ATO":9602,
      "facts":9603,
      "Ġholds":9604,
      "Ġrevolution":9605,
      "laration":9606,
      "Population":9607,
      "Ġcreating":9608,
      "Japanese":9609,
      "Ġconsonant":9610,
      "Google":9611,
      "fre":9612,
      "gc":9613,
      "votes":9614,
      "Ġsn":9615,
      "Ġhappen":9616,
      "ubl":9617,
      "ubic":9618,
      "Ġliterary":9619,
      "ĠEven":9620,
      "Ġusage":9621,
      "284":9622,
      "oxford":9623,
      "Ġformula":9624,
      "365":9625,
      "ĠAmong":9626,
      "Order":9627,
      "Ġdemand":9628,
      "Ġheadquarters":9629,
      "Ġbirths":9630,
      "Ġgranted":9631,
      "ĠâĨĴ":9632,
      "Ġ×":9633,
      "Brand":9634,
      "KÃ¶":9635,
      "bat":9636,
      "dle":9637,
      "feld":9638,
      "hang":9639,
      "num":9640,
      "Ġpun":9641,
      "Ġparticles":9642,
      "ĠLuc":9643,
      "ĠObserv":9644,
      "ĠKashmir":9645,
      "mans":9646,
      "China":9647,
      "radio":9648,
      "ĠIndex":9649,
      "ĠBenjamin":9650,
      "Ġaccounts":9651,
      "ylogen":9652,
      "nobel":9653,
      "rup":9654,
      "sel":9655,
      "Ġhus":9656,
      "ĠCur":9657,
      "ĠTro":9658,
      "Ġcontained":9659,
      "264":9660,
      "Ġconnection":9661,
      "Ġattempts":9662,
      "Map":9663,
      "Netherlands":9664,
      "Play":9665,
      "Sat":9666,
      "iov":9667,
      "mb":9668,
      "Ġcrisis":9669,
      "ĠCare":9670,
      "isted":9671,
      "lob":9672,
      "Ġstable":9673,
      "Ġanxiety":9674,
      "ĠAlgeria":9675,
      "Ġassass":9676,
      "Ġdepending":9677,
      "Ġdesigner":9678,
      "Ġorganizations":9679,
      "enaissance":9680,
      "ĠBuilding":9681,
      "ĠAnalysis":9682,
      "ener":9683,
      "icia":9684,
      "oti":9685,
      "Ġ[[:":9686,
      "Ġnav":9687,
      "Ġlang":9688,
      "Ġvess":9689,
      "Ġadvertising":9690,
      "afghanistan":9691,
      "Ġ151":9692,
      "ĠPhill":9693,
      "Ġprotect":9694,
      "Ġgods":9695,
      "ĠHollywood":9696,
      "Greenwood":9697,
      "largest":9698,
      "Ġoutput":9699,
      "BI":9700,
      "Joe":9701,
      "Ros":9702,
      "deb":9703,
      "rection":9704,
      "Ġwild":9705,
      "Ġinput":9706,
      "ĠSon":9707,
      "ĠBerg":9708,
      "ĠMarg":9709,
      "apes":9710,
      "ifican":9711,
      "issues":9712,
      "ĠChange":9713,
      "297":9714,
      "month":9715,
      "vier":9716,
      "Ġassemb":9717,
      "Ġcriticism":9718,
      "Ġviolence":9719,
      "Ġranked":9720,
      "Ġeasily":9721,
      "Ġrevealed":9722,
      "Ġconstructed":9723,
      "Work":9724,
      "kel":9725,
      "aturing":9726,
      "Ġcore":9727,
      "Ġ130":9728,
      "ĠBatt":9729,
      "imer":9730,
      "ĠOri":9731,
      "indows":9732,
      "Ġ400":9733,
      "269":9734,
      "Ġattributed":9735,
      "Ġyield":9736,
      "market":9737,
      "ĠDisraeli":9738,
      "Ġexpression":9739,
      "Ġtowns":9740,
      "mathematics":9741,
      ",''":9742,
      "SC":9743,
      "hn":9744,
      "stood":9745,
      "ropolis":9746,
      "coming":9747,
      "oda":9748,
      "abyl":9749,
      "ustrated":9750,
      "inder":9751,
      "Ġkings":9752,
      "project":9753,
      "holm":9754,
      "ĠAnglo":9755,
      "Ġwidespread":9756,
      "ĠPersian":9757,
      "Ġrit":9758,
      "dn":9759,
      "uy":9760,
      "eland":9761,
      "owered":9762,
      "ensen":9763,
      "inda":9764,
      "Ġperhaps":9765,
      "345":9766,
      "ĠReviews":9767,
      "Ġdebate":9768,
      "Pe":9769,
      "kt":9770,
      "natural":9771,
      "itime":9772,
      "Ġtaught":9773,
      "Ġbottom":9774,
      "Ġcrown":9775,
      "ĠJo":9776,
      "ainment":9777,
      "phy":9778,
      "tole":9779,
      "ahl":9780,
      "353":9781,
      "Ġgenetic":9782,
      "USA":9783,
      "Ġproviding":9784,
      "Williams":9785,
      "Ġvisual":9786,
      "Ġemployed":9787,
      "ĠFactbook":9788,
      "Ġmathematician":9789,
      "'|":9790,
      "Block":9791,
      "Food":9792,
      "ui":9793,
      "uary":9794,
      "armen":9795,
      "Ġwalk":9796,
      "Ġcited":9797,
      "ĠPass":9798,
      "statistics":9799,
      "Ġnewly":9800,
      "Amazon":9801,
      "Ġoperated":9802,
      "Conf":9803,
      "Ġpriest":9804,
      "ricketer":9805,
      "Ġacquired":9806,
      "ificance":9807,
      "430":9808,
      "ege":9809,
      "anz":9810,
      "ebast":9811,
      "Ġconstitution":9812,
      "Ġexists":9813,
      "ĠKnow":9814,
      "ĠThird":9815,
      "357":9816,
      "Ġdeveloping":9817,
      "Ġoccasion":9818,
      "Super":9819,
      "278":9820,
      "425":9821,
      "Mart":9822,
      "Vis":9823,
      "__":9824,
      "ĠSat":9825,
      "ampion":9826,
      "ithuan":9827,
      "ogg":9828,
      "izont":9829,
      "scar":9830,
      "continu":9831,
      "Leon":9832,
      "oronto":9833,
      "celebr":9834,
      "akharov":9835,
      "Bulgarian":9836,
      "Earth":9837,
      "Feb":9838,
      "NH":9839,
      "Treaty":9840,
      "bian":9841,
      "energy":9842,
      "amar":9843,
      "Ġseg":9844,
      "ĠBon":9845,
      "ĠDanish":9846,
      "ĠFreedom":9847,
      "ĠChapter":9848,
      "Ġuniform":9849,
      "Ġexplain":9850,
      "Ġdecre":9851,
      "***":9852,
      "Att":9853,
      "religion":9854,
      "ĠQuest":9855,
      "Ġtraditionally":9856,
      "case":9857,
      "vs":9858,
      "ÃŁ":9859,
      "reason":9860,
      "Ġdog":9861,
      "Ġ110":9862,
      "pping":9863,
      "ĠTelegraph":9864,
      "Ġhistorians":9865,
      "loomberg":9866,
      "education":9867,
      "328":9868,
      "vas":9869,
      "wald":9870,
      "eban":9871,
      "laus":9872,
      "esse":9873,
      "ĠFair":9874,
      "Ġlimit":9875,
      "Ġfriends":9876,
      "ĠSweden":9877,
      "Ġthousands":9878,
      "Ġrejected":9879,
      "DN":9880,
      "Dr":9881,
      "allow":9882,
      "Ġaqu":9883,
      "ĠCave":9884,
      "Ġrepresents":9885,
      "period":9886,
      "037":9887,
      "Animal":9888,
      "Ġresidents":9889,
      "anias":9890,
      "Ġrequires":9891,
      "Ġmembership":9892,
      "Ġadvantage":9893,
      "called":9894,
      "Ġexisting":9895,
      "Article":9896,
      "ĠBaltimore":9897,
      "ĠHopkins":9898,
      "ĠÅ":9899,
      "Ġarticles":9900,
      "329":9901,
      "Ġber":9902,
      "Ġcars":9903,
      "Ġpaid":9904,
      "irming":9905,
      "ĠBob":9906,
      "ĠPlant":9907,
      "ĠDatabase":9908,
      "Ġisot":9909,
      "ĠHay":9910,
      "Ġcomponent":9911,
      "eville":9912,
      "Ġamphetamine":9913,
      "ĠSwitzerland":9914,
      "latimes":9915,
      "Ġbegins":9916,
      "Ġscientist":9917,
      "Ġalgorithm":9918,
      "607":9919,
      "Census":9920,
      "MP":9921,
      "Sep":9922,
      "graph":9923,
      "ĠBack":9924,
      "ĠDavis":9925,
      "Ġbeaut":9926,
      "Ġscene":9927,
      "470":9928,
      "Brussels":9929,
      "Ġderiv":9930,
      "Afghan":9931,
      "Ger":9932,
      "Tube":9933,
      "andra":9934,
      "Ġcalls":9935,
      "Ġpi":9936,
      "ĠAld":9937,
      "emann":9938,
      "ĠMain":9939,
      "commons":9940,
      "ownt":9941,
      "ĠTreaty":9942,
      "actor":9943,
      "tele":9944,
      "Ã¼l":9945,
      "Ġcapture":9946,
      "Bor":9947,
      "RI":9948,
      "].&":9949,
      "andro":9950,
      "olm":9951,
      "Ġchosen":9952,
      "prus":9953,
      "brid":9954,
      "047":9955,
      "Ð°Ð½":9956,
      "Ġcapable":9957,
      "Ġlinked":9958,
      "Ġaffected":9959,
      "Ġratio":9960,
      "ĠTerritory":9961,
      ".-":9962,
      "518":9963,
      "Bio":9964,
      "TO":9965,
      "dated":9966,
      "ride":9967,
      "isen":9968,
      "amd":9969,
      "Ġce":9970,
      "aculture":9971,
      "Ġtox":9972,
      "ĠBetween":9973,
      "ĠMov":9974,
      "opin":9975,
      "iah":9976,
      "Ġcolour":9977,
      "Ġ172":9978,
      "oyage":9979,
      "471":9980,
      "iveness":9981,
      "utting":9982,
      "Ġhousehold":9983,
      "ĠElectron":9984,
      "Ġessential":9985,
      "Ġroughly":9986,
      "Blue":9987,
      "Die":9988,
      "een":9989,
      "py":9990,
      "Õ¸":9991,
      "onz":9992,
      "aked":9993,
      "Ġexerc":9994,
      "ughal":9995,
      "Ġ46":9996,
      "ĠYank":9997,
      "porter":9998,
      "Ġlegend":9999,
      "Ġapproved":10000,
      "Ġprocessing":10001,
      "Ġaccident":10002,
      "Ġneighbor":10003,
      "Asp":10004,
      "vy":10005,
      "arxiv":10006,
      "alla":10007,
      "Ġtim":10008,
      "adow":10009,
      "ĠWelsh":10010,
      "ĠTur":10011,
      "central":10012,
      "control":10013,
      "Ġroom":10014,
      "ĠTeam":10015,
      "ĠManagement":10016,
      "sworthy":10017,
      "Ġtesting":10018,
      "europa":10019,
      "brose":10020,
      "ĠCaesar":10021,
      "ĠMuhammad":10022,
      "636":10023,
      "Non":10024,
      "information":10025,
      "lehem":10026,
      "ĠDer":10027,
[...]
